{
  "version": "1.0",
  "truncation": null,
  "padding": null,
  "added_tokens": [
    {
      "id": 0,
      "content": "<unk>",
      "single_word": false,
      "lstrip": false,
      "rstrip": false,
      "normalized": false,
      "special": true
    },
    {
      "id": 1,
      "content": "<s>",
      "single_word": false,
      "lstrip": false,
      "rstrip": false,
      "normalized": false,
      "special": true
    },
    {
      "id": 2,
      "content": "</s>",
      "single_word": false,
      "lstrip": false,
      "rstrip": false,
      "normalized": false,
      "special": true
    },
    {
      "id": 3,
      "content": "<pad>",
      "single_word": false,
      "lstrip": false,
      "rstrip": false,
      "normalized": false,
      "special": true
    }
  ],
  "normalizer": null,
  "pre_tokenizer": {
    "type": "ByteLevel",
    "add_prefix_space": false,
    "trim_offsets": true,
    "use_regex": true
  },
  "post_processor": null,
  "decoder": {
    "type": "ByteLevel",
    "add_prefix_space": true,
    "trim_offsets": true,
    "use_regex": true
  },
  "model": {
    "type": "BPE",
    "dropout": null,
    "unk_token": "<unk>",
    "continuing_subword_prefix": null,
    "end_of_word_suffix": null,
    "fuse_unk": false,
    "byte_fallback": false,
    "ignore_merges": false,
    "vocab": {
      "<unk>": 0,
      "<s>": 1,
      "</s>": 2,
      "<pad>": 3,
      "!": 4,
      "\"": 5,
      "#": 6,
      "$": 7,
      "%": 8,
      "&": 9,
      "'": 10,
      "(": 11,
      ")": 12,
      "*": 13,
      "+": 14,
      ",": 15,
      "-": 16,
      ".": 17,
      "/": 18,
      "0": 19,
      "1": 20,
      "2": 21,
      "3": 22,
      "4": 23,
      "5": 24,
      "6": 25,
      "7": 26,
      "8": 27,
      "9": 28,
      ":": 29,
      ";": 30,
      "<": 31,
      "=": 32,
      ">": 33,
      "?": 34,
      "@": 35,
      "A": 36,
      "B": 37,
      "C": 38,
      "D": 39,
      "E": 40,
      "F": 41,
      "G": 42,
      "H": 43,
      "I": 44,
      "J": 45,
      "K": 46,
      "L": 47,
      "M": 48,
      "N": 49,
      "O": 50,
      "P": 51,
      "Q": 52,
      "R": 53,
      "S": 54,
      "T": 55,
      "U": 56,
      "V": 57,
      "W": 58,
      "X": 59,
      "Y": 60,
      "Z": 61,
      "[": 62,
      "\\": 63,
      "]": 64,
      "^": 65,
      "_": 66,
      "`": 67,
      "a": 68,
      "b": 69,
      "c": 70,
      "d": 71,
      "e": 72,
      "f": 73,
      "g": 74,
      "h": 75,
      "i": 76,
      "j": 77,
      "k": 78,
      "l": 79,
      "m": 80,
      "n": 81,
      "o": 82,
      "p": 83,
      "q": 84,
      "r": 85,
      "s": 86,
      "t": 87,
      "u": 88,
      "v": 89,
      "w": 90,
      "x": 91,
      "y": 92,
      "z": 93,
      "{": 94,
      "|": 95,
      "}": 96,
      "~": 97,
      "¡": 98,
      "¢": 99,
      "£": 100,
      "¤": 101,
      "¥": 102,
      "¦": 103,
      "§": 104,
      "¨": 105,
      "©": 106,
      "ª": 107,
      "«": 108,
      "¬": 109,
      "®": 110,
      "¯": 111,
      "°": 112,
      "±": 113,
      "²": 114,
      "³": 115,
      "´": 116,
      "µ": 117,
      "¶": 118,
      "·": 119,
      "¸": 120,
      "¹": 121,
      "º": 122,
      "»": 123,
      "¼": 124,
      "½": 125,
      "¾": 126,
      "¿": 127,
      "Â": 128,
      "Ã": 129,
      "Ä": 130,
      "Å": 131,
      "Æ": 132,
      "Ç": 133,
      "È": 134,
      "É": 135,
      "Ê": 136,
      "Ë": 137,
      "Ì": 138,
      "Í": 139,
      "Î": 140,
      "Ï": 141,
      "Ð": 142,
      "Ñ": 143,
      "Ò": 144,
      "Ó": 145,
      "Ô": 146,
      "Õ": 147,
      "Ö": 148,
      "×": 149,
      "Ø": 150,
      "Ù": 151,
      "Ú": 152,
      "Û": 153,
      "Ü": 154,
      "Ý": 155,
      "Þ": 156,
      "ß": 157,
      "à": 158,
      "á": 159,
      "â": 160,
      "ã": 161,
      "ä": 162,
      "å": 163,
      "æ": 164,
      "ç": 165,
      "è": 166,
      "é": 167,
      "ê": 168,
      "ë": 169,
      "ì": 170,
      "í": 171,
      "î": 172,
      "ï": 173,
      "ð": 174,
      "Ġ": 175,
      "Ģ": 176,
      "ģ": 177,
      "Ĥ": 178,
      "ĥ": 179,
      "Ħ": 180,
      "ħ": 181,
      "Ĩ": 182,
      "ĩ": 183,
      "Ī": 184,
      "ī": 185,
      "Ĭ": 186,
      "ĭ": 187,
      "Į": 188,
      "į": 189,
      "İ": 190,
      "ı": 191,
      "Ĳ": 192,
      "ĳ": 193,
      "Ĵ": 194,
      "ĵ": 195,
      "Ķ": 196,
      "ķ": 197,
      "ĸ": 198,
      "Ĺ": 199,
      "ĺ": 200,
      "Ļ": 201,
      "ļ": 202,
      "Ľ": 203,
      "ľ": 204,
      "Ŀ": 205,
      "ŀ": 206,
      "Ł": 207,
      "ł": 208,
      "Ń": 209,
      "an": 210,
      "er": 211,
      "Ġd": 212,
      "en": 213,
      "ar": 214,
      "la": 215,
      "Ġm": 216,
      "in": 217,
      "ang": 218,
      "at": 219,
      "Ġp": 220,
      "Ġs": 221,
      "Ġt": 222,
      "si": 223,
      "un": 224,
      "Ġk": 225,
      "Ġb": 226,
      "da": 227,
      "Ġdi": 228,
      "em": 229,
      "ah": 230,
      "ak": 231,
      "al": 232,
      "ĠS": 233,
      "ĠP": 234,
      "on": 235,
      "am": 236,
      "as": 237,
      "Ġse": 238,
      "eng": 239,
      "ada": 240,
      "ya": 241,
      "ik": 242,
      "uk": 243,
      "Ġdan": 244,
      "or": 245,
      "ĠA": 246,
      "yang": 247,
      "is": 248,
      "ĠK": 249,
      "es": 250,
      "Ġyang": 251,
      "it": 252,
      "ĠM": 253,
      "il": 254,
      "ga": 255,
      "ĠB": 256,
      "ĠT": 257,
      "ur": 258,
      "us": 259,
      "el": 260,
      "lah": 261,
      "ari": 262,
      "Ġ(": 263,
      "ut": 264,
      "ĠD": 265,
      "ol": 266,
      "kan": 267,
      "di": 268,
      "et": 269,
      "Ġmen": 270,
      "um": 271,
      "Ġber": 272,
      "ing": 273,
      "ĠI": 274,
      "ĠR": 275,
      "Ġ1": 276,
      "ala": 277,
      "eb": 278,
      "Ġter": 279,
      "20": 280,
      "ek": 281,
      "ap": 282,
      "ara": 283,
      "ĠC": 284,
      "ba": 285,
      "Ġin": 286,
      "Ġke": 287,
      "asi": 288,
      "Ġdari": 289,
      "Ġper": 290,
      "ĠL": 291,
      "nya": 292,
      "om": 293,
      "ir": 294,
      "akan": 295,
      "im": 296,
      "ul": 297,
      "ia": 298,
      "ĠJ": 299,
      "ja": 300,
      "up": 301,
      "ta": 302,
      "Ġmem": 303,
      "Ġl": 304,
      "ung": 305,
      "Ġ20": 306,
      "ĠN": 307,
      "engan": 308,
      "Ġpada": 309,
      "ro": 310,
      "tuk": 311,
      "Ġh": 312,
      "Ġini": 313,
      "ĠH": 314,
      "Ġada": 315,
      "ti": 316,
      "ĠG": 317,
      "Ġdengan": 318,
      "alam": 319,
      "ama": 320,
      "Ġj": 321,
      "Ġmeng": 322,
      "gi": 323,
      "Ġun": 324,
      "ĠF": 325,
      "Ġadalah": 326,
      "ri": 327,
      "esi": 328,
      "Ġuntuk": 329,
      "ĠIn": 330,
      "ter": 331,
      "ep": 332,
      "ela": 333,
      "eh": 334,
      "Ġ|": 335,
      "ab": 336,
      "gai": 337,
      "Ġ19": 338,
      "Ġr": 339,
      "ahun": 340,
      "Ġmer": 341,
      "Ġdalam": 342,
      "emb": 343,
      "id": 344,
      "ad": 345,
      "ok": 346,
      "Ġtahun": 347,
      "Ġpen": 348,
      "bagai": 349,
      "and": 350,
      "Ġla": 351,
      "Ġn": 352,
      "ata": 353,
      "Ġf": 354,
      "wa": 355,
      "bu": 356,
      "ĠU": 357,
      "ĠW": 358,
      "ĠE": 359,
      "Ġsebagai": 360,
      "ant": 361,
      "oleh": 362,
      "Ġg": 363,
      "ih": 364,
      "ra": 365,
      "eg": 366,
      "Ġc": 367,
      "ent": 368,
      "he": 369,
      "atan": 370,
      "Ġoleh": 371,
      "ĠO": 372,
      "ic": 373,
      "ida": 374,
      "uh": 375,
      "per": 376,
      "ed": 377,
      "os": 378,
      "asa": 379,
      "Ġa": 380,
      "ef": 381,
      "ub": 382,
      "ot": 383,
      "ula": 384,
      "ran": 385,
      "âĢ": 386,
      "ua": 387,
      "elah": 388,
      "Ġba": 389,
      "ikan": 390,
      "ensi": 391,
      "anya": 392,
      "Ġ\"": 393,
      "Ġ201": 394,
      "ong": 395,
      "ati": 396,
      "Ġw": 397,
      "ec": 398,
      "Ġ200": 399,
      "itu": 400,
      "ebut": 401,
      "Ġju": 402,
      "angan": 403,
      "jadi": 404,
      "amp": 405,
      "ĠY": 406,
      "ali": 407,
      "Ġo": 408,
      "Ġ2": 409,
      "ana": 410,
      "atu": 411,
      "ĠPer": 412,
      "ist": 413,
      "orang": 414,
      "ud": 415,
      "Ġjuga": 416,
      "op": 417,
      "ai": 418,
      "usi": 419,
      "ika": 420,
      "uar": 421,
      "ch": 422,
      "ĠAn": 423,
      "emp": 424,
      "ukan": 425,
      "isi": 426,
      "Ġbah": 427,
      "19": 428,
      "sebut": 429,
      "erensi": 430,
      "don": 431,
      "ip": 432,
      "ilm": 433,
      "ota": 434,
      "upakan": 435,
      "ĠRef": 436,
      "ber": 437,
      "Ġmerupakan": 438,
      "Ġmenjadi": 439,
      "Ġsa": 440,
      "idak": 441,
      "ĠReferensi": 442,
      "od": 443,
      "gian": 444,
      "ma": 445,
      "tr": 446,
      "og": 447,
      "eka": 448,
      "Ġpeng": 449,
      "atau": 450,
      "Ġpem": 451,
      "esia": 452,
      "ag": 453,
      "ĠV": 454,
      "amb": 455,
      "Ġpert": 456,
      "uan": 457,
      "ahan": 458,
      "Ġtidak": 459,
      "Ġatau": 460,
      "angg": 461,
      "Ġof": 462,
      "donesia": 463,
      "int": 464,
      "aw": 465,
      "ĠIndonesia": 466,
      "âĢĵ": 467,
      "ian": 468,
      ".,": 469,
      "Ġmeny": 470,
      "Ġ-": 471,
      "any": 472,
      "ay": 473,
      "ew": 474,
      "Ġkar": 475,
      "Ġtersebut": 476,
      "ĠPada": 477,
      "ena": 478,
      "anj": 479,
      "ilik": 480,
      "ĠAl": 481,
      "ov": 482,
      "oh": 483,
      "Ġitu": 484,
      "onal": 485,
      "udi": 486,
      "Ġser": 487,
      "),": 488,
      "00": 489,
      "Ġdit": 490,
      "angk": 491,
      "buah": 492,
      ").": 493,
      "Ġsebuah": 494,
      "ila": 495,
      "Ġpro": 496,
      "ĠPran": 497,
      "st": 498,
      "pesi": 499,
      "ĠAm": 500,
      "Ġkem": 501,
      "ac": 502,
      "aan": 503,
      "esar": 504,
      "le": 505,
      "ver": 506,
      "Ġluar": 507,
      "gun": 508,
      "ĠCh": 509,
      "Ġak": 510,
      "ĠAr": 511,
      "Ġsek": 512,
      "ni": 513,
      "Ġ||": 514,
      "pesies": 515,
      "apat": 516,
      "iliki": 517,
      "esa": 518,
      "Ġbagian": 519,
      "Ġas": 520,
      "Ġdik": 521,
      "Ġmereka": 522,
      "li": 523,
      "tan": 524,
      "Ġdapat": 525,
      "Ġia": 526,
      "Ġ3": 527,
      "Ġsatu": 528,
      "uda": 529,
      "end": 530,
      "Ġlain": 531,
      "aran": 532,
      "las": 533,
      "ĠThe": 534,
      "Ġmemiliki": 535,
      "yah": 536,
      "cara": 537,
      "Ġseb": 538,
      "ebih": 539,
      "apa": 540,
      "Ġtelah": 541,
      "uj": 542,
      "ember": 543,
      "sa": 544,
      "omp": 545,
      "inya": 546,
      "Ġmela": 547,
      "ev": 548,
      "Ġbahwa": 549,
      "lu": 550,
      "gr": 551,
      "ĠDi": 552,
      "Ġkep": 553,
      "empat": 554,
      "bat": 555,
      "dia": 556,
      "ĠSt": 557,
      "hir": 558,
      "ĠSer": 559,
      "Ġket": 560,
      "aya": 561,
      "ĠPranala": 562,
      "ard": 563,
      "diri": 564,
      "eber": 565,
      "man": 566,
      "ons": 567,
      "bang": 568,
      "Ġlebih": 569,
      "api": 570,
      "ingga": 571,
      "Ġthe": 572,
      "Ġker": 573,
      "th": 574,
      "osi": 575,
      "ĠMar": 576,
      "Ġorang": 577,
      "Ġor": 578,
      "gunakan": 579,
      "ola": 580,
      "Ġ199": 581,
      "ingk": 582,
      "alan": 583,
      "Ġpertama": 584,
      "ug": 585,
      "ungan": 586,
      "ĠPro": 587,
      "ĠAmer": 588,
      "Ġv": 589,
      "Ġat": 590,
      "Ġsem": 591,
      "re": 592,
      "asil": 593,
      "Ġmel": 594,
      "ont": 595,
      "entuk": 596,
      "Ġset": 597,
      "ĠPen": 598,
      "aman": 599,
      "ob": 600,
      "ea": 601,
      "ĠSela": 602,
      "ĠPem": 603,
      "aja": 604,
      "Ġseorang": 605,
      "ĠPr": 606,
      "Ġkarena": 607,
      "tar": 608,
      "Ġakan": 609,
      "ej": 610,
      "Ġsen": 611,
      "egara": 612,
      "Ġdip": 613,
      "han": 614,
      "ita": 615,
      "dap": 616,
      "eberapa": 617,
      "Ġdis": 618,
      "Ġant": 619,
      "Ġmas": 620,
      "Ġan": 621,
      "ig": 622,
      "arat": 623,
      "aj": 624,
      "perti": 625,
      "imp": 626,
      "udian": 627,
      "sit": 628,
      "anyak": 629,
      "Ġsela": 630,
      "unan": 631,
      "do": 632,
      "Ġmemb": 633,
      "uran": 634,
      "Ġseperti": 635,
      "arah": 636,
      "Ġsecara": 637,
      "201": 638,
      "arta": 639,
      "ck": 640,
      "iga": 641,
      "Ġkec": 642,
      "Ġbi": 643,
      "ain": 644,
      "Ġtet": 645,
      "Ġkel": 646,
      "af": 647,
      "wan": 648,
      "Ġspesies": 649,
      "ĠAmerika": 650,
      "Ġal": 651,
      "duk": 652,
      "Ġmenc": 653,
      "aru": 654,
      "est": 655,
      "ina": 656,
      "ili": 657,
      "art": 658,
      "eri": 659,
      "asan": 660,
      "Ġ18": 661,
      "Ġbesar": 662,
      "anda": 663,
      "Ġ4": 664,
      "ĠIa": 665,
      "Ġsej": 666,
      "itas": 667,
      "gal": 668,
      "rop": 669,
      "if": 670,
      "Ġberk": 671,
      "dapat": 672,
      "ust": 673,
      "arkan": 674,
      "ill": 675,
      "ĠFilm": 676,
      "asional": 677,
      "Ġand": 678,
      "elum": 679,
      "aten": 680,
      "enal": 681,
      "ib": 682,
      "Ġkemudian": 683,
      "ĠUni": 684,
      "orm": 685,
      "lak": 686,
      "Ġfilm": 687,
      "ei": 688,
      "Ġ|-": 689,
      "ha": 690,
      "erah": 691,
      "ilayah": 692,
      "ikat": 693,
      "Ġsaat": 694,
      "Ġ5": 695,
      "eda": 696,
      "=\"": 697,
      "ow": 698,
      "Ġbers": 699,
      "idae": 700,
      "mas": 701,
      "alia": 702,
      "arang": 703,
      "abup": 704,
      "gu": 705,
      "ulai": 706,
      "abupaten": 707,
      "Ġbeberapa": 708,
      "tern": 709,
      "lan": 710,
      "idup": 711,
      "unia": 712,
      "ĠTim": 713,
      "Ġmusi": 714,
      "ima": 715,
      "ĠâĢĵ": 716,
      "usia": 717,
      "ĠBer": 718,
      "tor": 719,
      "ĠIs": 720,
      "ĠSep": 721,
      "ulan": 722,
      "ĠSh": 723,
      "Ġkota": 724,
      "era": 725,
      "erint": 726,
      "ulis": 727,
      "ĠAs": 728,
      "Ġut": 729,
      "usah": 730,
      "Ġpemb": 731,
      "tur": 732,
      "olo": 733,
      "Ġsetelah": 734,
      "ĠZ": 735,
      "Ġpr": 736,
      "Ġst": 737,
      "200": 738,
      "Ġsalah": 739,
      "buat": 740,
      "ĠMen": 741,
      "av": 742,
      "anggal": 743,
      "ode": 744,
      "oc": 745,
      "amatan": 746,
      "Ġantara": 747,
      "etak": 748,
      "Ġgen": 749,
      "Ġsep": 750,
      "ĠSp": 751,
      "gan": 752,
      "inan": 753,
      "ses": 754,
      "Ġdua": 755,
      "tu": 756,
      "ikut": 757,
      "angkan": 758,
      "ĠPeng": 759,
      "umum": 760,
      "Ġbanyak": 761,
      "wal": 762,
      "Ġked": 763,
      "ell": 764,
      "Ġ198": 765,
      "Ġpeny": 766,
      "to": 767,
      "Ġsu": 768,
      "ĠAg": 769,
      "ihat": 770,
      "na": 771,
      "ĠKabupaten": 772,
      "arak": 773,
      "Ġterl": 774,
      "uku": 775,
      "ingan": 776,
      "eks": 777,
      "Ġsel": 778,
      "tif": 779,
      "itar": 780,
      "Ġwilayah": 781,
      "Ġatas": 782,
      "Ġtanggal": 783,
      "ori": 784,
      "Ġdir": 785,
      "ce": 786,
      "und": 787,
      "ĠSerikat": 788,
      "oid": 789,
      "ingkat": 790,
      "Ġ6": 791,
      "Ġkes": 792,
      "Ġdib": 793,
      "ĠBa": 794,
      "ĠTer": 795,
      "Ġhingga": 796,
      "Ġbert": 797,
      "ki": 798,
      "son": 799,
      "bit": 800,
      "lam": 801,
      "ĠBr": 802,
      "Ġtetapi": 803,
      "har": 804,
      "Ġpend": 805,
      "Ġbahasa": 806,
      "Ġkali": 807,
      "ĠOr": 808,
      "lin": 809,
      "Ġnegara": 810,
      "itik": 811,
      "Ġdesa": 812,
      "se": 813,
      "Ġnama": 814,
      "engah": 815,
      "aris": 816,
      "awa": 817,
      "emen": 818,
      "unc": 819,
      "unya": 820,
      "ayu": 821,
      "Ġpara": 822,
      "Ġkepada": 823,
      "lik": 824,
      "dikan": 825,
      "ui": 826,
      "Ġdim": 827,
      "uc": 828,
      "utan": 829,
      "inggi": 830,
      "epang": 831,
      "insi": 832,
      "hi": 833,
      "versit": 834,
      "Ġ7": 835,
      "ĠAp": 836,
      "anjang": 837,
      "umlah": 838,
      "annya": 839,
      "Ġtim": 840,
      "Ġ&": 841,
      "Ġberb": 842,
      "ual": 843,
      "Ġpas": 844,
      "ologi": 845,
      "eran": 846,
      "our": 847,
      "Ġmengh": 848,
      "ĠSa": 849,
      "enda": 850,
      "Ġmasa": 851,
      "Ġdia": 852,
      "Ġya": 853,
      "angga": 854,
      "ĠJepang": 855,
      "adap": 856,
      "amun": 857,
      "raf": 858,
      "ey": 859,
      "den": 860,
      "Ġtan": 861,
      "entara": 862,
      "ern": 863,
      "Ġterb": 864,
      "unj": 865,
      "eja": 866,
      "ĠUt": 867,
      "Ġdigunakan": 868,
      "Ġsamp": 869,
      "asanya": 870,
      "ĠAng": 871,
      "teroid": 872,
      "ini": 873,
      "Ġkayu": 874,
      "aftar": 875,
      "aka": 876,
      "ĠSeb": 877,
      "ge": 878,
      "Ġyaitu": 879,
      "olah": 880,
      "ilih": 881,
      "entang": 882,
      "ĠSelatan": 883,
      "Ġfam": 884,
      "ort": 885,
      "Ġsang": 886,
      "\".": 887,
      "ĠSet": 888,
      "Ġ2000": 889,
      "Ġpula": 890,
      "aerah": 891,
      "inggal": 892,
      "Ġserta": 893,
      "olong": 894,
      "Ġput": 895,
      "mi": 896,
      "ungk": 897,
      "uruh": 898,
      "bum": 899,
      "ump": 900,
      "Ġsebelum": 901,
      "ind": 902,
      "Ġhanya": 903,
      "ue": 904,
      "Ġangg": 905,
      "Ġ197": 906,
      "ĠUn": 907,
      "ilan": 908,
      "Ã©": 909,
      "lass": 910,
      "Ġsed": 911,
      "Ġkemb": 912,
      "ka": 913,
      "Ġkom": 914,
      "vinsi": 915,
      "Ġmemper": 916,
      "Ġakhir": 917,
      "isa": 918,
      "ĠUniversit": 919,
      "uka": 920,
      "angs": 921,
      "okoh": 922,
      "Ġfamili": 923,
      "Ġkelas": 924,
      "ation": 925,
      "yak": 926,
      "oda": 927,
      "ĠSpesies": 928,
      "uduk": 929,
      "uari": 930,
      "Ġlainnya": 931,
      "apan": 932,
      "ast": 933,
      "ex": 934,
      "Ġdiper": 935,
      "Ġumum": 936,
      "asih": 937,
      "Ġbaru": 938,
      "Ġordo": 939,
      "wah": 940,
      "dir": 941,
      "Ġbiasanya": 942,
      "iran": 943,
      "ĠDesa": 944,
      "Ġawal": 945,
      "sia": 946,
      "Ġ10": 947,
      "Ġgenus": 948,
      "yat": 949,
      "ĠKota": 950,
      "Ġclass": 951,
      "Ġterg": 952,
      "Ġselama": 953,
      "me": 954,
      "ess": 955,
      "Ġtempat": 956,
      "ĠDalam": 957,
      "Ġmenggunakan": 958,
      "masuk": 959,
      "Ġkon": 960,
      "Ġbersama": 961,
      "onom": 962,
      "ies": 963,
      "Ġsendiri": 964,
      "ĠIng": 965,
      "usahaan": 966,
      "ĠBel": 967,
      "eker": 968,
      "yc": 969,
      "iter": 970,
      "Ġag": 971,
      "gris": 972,
      "ani": 973,
      "ine": 974,
      "Ġsama": 975,
      "umah": 976,
      "Ġ8": 977,
      "Ġkembali": 978,
      "ĠKep": 979,
      "Ġsekitar": 980,
      "ark": 981,
      "Ġhidup": 982,
      "ura": 983,
      "ial": 984,
      "Ġterh": 985,
      "ord": 986,
      "Ġanak": 987,
      "ilis": 988,
      "ĠAk": 989,
      "199": 990,
      "inda": 991,
      "udah": 992,
      "disi": 993,
      "ĠII": 994,
      "Ġres": 995,
      "Ġpol": 996,
      "Ġ196": 997,
      "bad": 998,
      "Ġ9": 999,
      "Ġterletak": 1000,
      "Ġpern": 1001,
      "ĠLa": 1002,
      "ou": 1003,
      "ĠKet": 1004,
      "Ġdisebut": 1005,
      "ĠDia": 1006,
      "Ġkedua": 1007,
      "Ġad": 1008,
      "Ġhar": 1009,
      "Ġpemerint": 1010,
      "Ġanggota": 1011,
      "atang": 1012,
      "ĠBarat": 1013,
      "Ġsangat": 1014,
      "Ġja": 1015,
      "ĠJawa": 1016,
      "ĠSept": 1017,
      "asal": 1018,
      "sp": 1019,
      "Ġwak": 1020,
      "all": 1021,
      "ĠInggris": 1022,
      "Ġdikenal": 1023,
      "ĠCat": 1024,
      "eo": 1025,
      "eta": 1026,
      "umbang": 1027,
      "Ġsampai": 1028,
      "teri": 1029,
      "ĠPol": 1030,
      "Ġ()": 1031,
      "Ġseh": 1032,
      "itan": 1033,
      "lui": 1034,
      "Ġberada": 1035,
      "ĠTimur": 1036,
      "Ġbulan": 1037,
      "istr": 1038,
      "ikasi": 1039,
      "Ġ0": 1040,
      "egeri": 1041,
      "ĠSeptember": 1042,
      "uang": 1043,
      "ĠSej": 1044,
      "Ġlagu": 1045,
      "Ġmembuat": 1046,
      "ĠKar": 1047,
      "cis": 1048,
      "ĠEn": 1049,
      "Ġmember": 1050,
      "lat": 1051,
      "ograf": 1052,
      "ĠMei": 1053,
      "Ġberp": 1054,
      "adi": 1055,
      "uli": 1056,
      "isasi": 1057,
      "Ġtergolong": 1058,
      "21": 1059,
      "ahasa": 1060,
      "Ġhari": 1061,
      "uni": 1062,
      "usan": 1063,
      "Ġde": 1064,
      "enc": 1065,
      "ĠCol": 1066,
      "Ġdunia": 1067,
      "Ġkeb": 1068,
      "ĠKor": 1069,
      "ĠSM": 1070,
      "erman": 1071,
      "ĠSek": 1072,
      "didikan": 1073,
      "Ġasteroid": 1074,
      "ĠKom": 1075,
      "ers": 1076,
      "Ġfil": 1077,
      "ĠDaftar": 1078,
      "Ġar": 1079,
      "Ġtel": 1080,
      "ĠTi": 1081,
      "ht": 1082,
      "Ġman": 1083,
      "Ġtentang": 1084,
      "Ġditer": 1085,
      "unt": 1086,
      "ĠMas": 1087,
      "Ġberh": 1088,
      "Ġmemp": 1089,
      "ĠKr": 1090,
      "Ġmulai": 1091,
      "das": 1092,
      "Ġ2011": 1093,
      "Ġ.": 1094,
      "aling": 1095,
      "ĠGr": 1096,
      "ebab": 1097,
      "akhir": 1098,
      "Ġutama": 1099,
      "Ġtermasuk": 1100,
      "ĠKec": 1101,
      "ĠKe": 1102,
      "ĠSum": 1103,
      "Ġmelalui": 1104,
      "oy": 1105,
      "Ġkomp": 1106,
      "yarak": 1107,
      "Ġga": 1108,
      "ereja": 1109,
      "Ġ2012": 1110,
      "dom": 1111,
      "18": 1112,
      "Ġmana": 1113,
      "de": 1114,
      "Ġterhadap": 1115,
      "ry": 1116,
      "ĠRe": 1117,
      "ĠCer": 1118,
      "inal": 1119,
      "âĢĶ": 1120,
      "alat": 1121,
      "ublik": 1122,
      "enis": 1123,
      "urut": 1124,
      "atakan": 1125,
      "anan": 1126,
      "ĠSetelah": 1127,
      "istem": 1128,
      "ff": 1129,
      "yarakat": 1130,
      "'s": 1131,
      "engg": 1132,
      "Ġ2009": 1133,
      "uhan": 1134,
      "Ġ194": 1135,
      "Ġketika": 1136,
      "ĠUtara": 1137,
      "elas": 1138,
      "Ġilm": 1139,
      "ĠIntern": 1140,
      "ĠAc": 1141,
      "Ġterk": 1142,
      "duksi": 1143,
      "Ġkeluar": 1144,
      "inta": 1145,
      "Ġpes": 1146,
      "ĠSo": 1147,
      "Ġmelak": 1148,
      "ton": 1149,
      "akarta": 1150,
      "Ġdaerah": 1151,
      "ĠMer": 1152,
      "emukan": 1153,
      "ĠKat": 1154,
      "esk": 1155,
      "Ġbawah": 1156,
      "ĠTh": 1157,
      "ĠMan": 1158,
      "umbu": 1159,
      "000": 1160,
      "Ġtert": 1161,
      "ĠAnim": 1162,
      "itus": 1163,
      "ekerja": 1164,
      "Ġberasal": 1165,
      "tera": 1166,
      "ĠNew": 1167,
      "ase": 1168,
      "usat": 1169,
      "Ġsejak": 1170,
      "Ġwaktu": 1171,
      "Ġbola": 1172,
      "Ġberj": 1173,
      "anta": 1174,
      "pa": 1175,
      "ĠIns": 1176,
      "Ġ15": 1177,
      "Ġsehingga": 1178,
      "ĠX": 1179,
      "ĠKer": 1180,
      "tiv": 1181,
      "Ġseba": 1182,
      "ĠLe": 1183,
      "Ġmasih": 1184,
      "aki": 1185,
      "eter": 1186,
      "ebabkan": 1187,
      "ĠOk": 1188,
      "ahkan": 1189,
      "AN": 1190,
      "ekn": 1191,
      "Ġmusik": 1192,
      "edia": 1193,
      "uru": 1194,
      "esiden": 1195,
      "ĠMa": 1196,
      "Ġkumbang": 1197,
      "ne": 1198,
      "Ġ195": 1199,
      "22": 1200,
      "ubah": 1201,
      "elak": 1202,
      "Ġdilak": 1203,
      "ografi": 1204,
      "evisi": 1205,
      "Ġmend": 1206,
      "sis": 1207,
      "ca": 1208,
      "ukum": 1209,
      "Ġbagi": 1210,
      "iah": 1211,
      "Ġair": 1212,
      "Ġmenja": 1213,
      "Ġrumah": 1214,
      "Ġ25": 1215,
      "ish": 1216,
      "su": 1217,
      "Ġkh": 1218,
      "isti": 1219,
      "uasa": 1220,
      "iv": 1221,
      "Ġ17": 1222,
      "isme": 1223,
      "ĠJan": 1224,
      "ongk": 1225,
      "Ġtiga": 1226,
      "ĠPrancis": 1227,
      "upun": 1228,
      "angunan": 1229,
      "Ġhal": 1230,
      "ĠMus": 1231,
      "ustr": 1232,
      "gram": 1233,
      "Ġi": 1234,
      "ich": 1235,
      "ĠArth": 1236,
      "intang": 1237,
      "Ġpernah": 1238,
      "Ġmendapat": 1239,
      "Ġmelakukan": 1240,
      "\",": 1241,
      "antan": 1242,
      "ĠSem": 1243,
      "Ġmenj": 1244,
      "asar": 1245,
      "Ġresmi": 1246,
      "Ġbisa": 1247,
      "Ġtinggi": 1248,
      "Ġberbagai": 1249,
      "ĠTokoh": 1250,
      "nama": 1251,
      "ingdom": 1252,
      "Ġdil": 1253,
      "lahir": 1254,
      "ĠQ": 1255,
      "angkat": 1256,
      "Ġperusahaan": 1257,
      "dasarkan": 1258,
      "ĠJerman": 1259,
      "ĠKecamatan": 1260,
      "dirikan": 1261,
      "ational": 1262,
      "bitkan": 1263,
      "Ġmusim": 1264,
      "impin": 1265,
      "form": 1266,
      "uat": 1267,
      "ami": 1268,
      "go": 1269,
      "Ġ16": 1270,
      "Ġkek": 1271,
      "Ġpenduduk": 1272,
      "Ġabad": 1273,
      "Ġkap": 1274,
      "lo": 1275,
      "Ġpanjang": 1276,
      "Ġmasyarakat": 1277,
      "Ġterjadi": 1278,
      "Ġfilum": 1279,
      "red": 1280,
      "gaan": 1281,
      "ĠSun": 1282,
      "mp": 1283,
      "Ġ24": 1284,
      "ĠAnimalia": 1285,
      "anjut": 1286,
      "ĠNov": 1287,
      "ju": 1288,
      "tober": 1289,
      "umi": 1290,
      "ĠRo": 1291,
      "san": 1292,
      "ho": 1293,
      "||": 1294,
      "ĠRom": 1295,
      "Ġkingdom": 1296,
      "rad": 1297,
      "ecies": 1298,
      "udara": 1299,
      "anc": 1300,
      "ĠAb": 1301,
      "ĠUniversitas": 1302,
      "Ġkecamatan": 1303,
      "Ġkons": 1304,
      "Ġmat": 1305,
      "Ġro": 1306,
      "ril": 1307,
      "ĠLihat": 1308,
      "ĠNamun": 1309,
      "ender": 1310,
      "ecta": 1311,
      "uas": 1312,
      "ĠKem": 1313,
      "Ġkecil": 1314,
      "Ġpaling": 1315,
      "ly": 1316,
      "angsung": 1317,
      "ewan": 1318,
      "Ġsudah": 1319,
      "ĠNama": 1320,
      "Ġ12": 1321,
      "uta": 1322,
      "ekan": 1323,
      "ropoda": 1324,
      "Ġsepak": 1325,
      "Ġterdiri": 1326,
      "awan": 1327,
      "ambyc": 1328,
      "apai": 1329,
      "ĠCerambyc": 1330,
      "ĠCerambycidae": 1331,
      "ĠDes": 1332,
      "ĠArthropoda": 1333,
      "ld": 1334,
      "engk": 1335,
      "ĠBaill": 1336,
      "ulu": 1337,
      "ĠInsecta": 1338,
      "artai": 1339,
      "ompok": 1340,
      "apkan": 1341,
      "ĠSen": 1342,
      "lanet": 1343,
      "10": 1344,
      "Ġma": 1345,
      "awat": 1346,
      "asiun": 1347,
      "by": 1348,
      "Ġterp": 1349,
      "Ġmenyebabkan": 1350,
      "idang": 1351,
      "angsa": 1352,
      "Ġtak": 1353,
      "Ġsemua": 1354,
      "anggap": 1355,
      "ĠPemb": 1356,
      "ĠAd": 1357,
      "Ġsuatu": 1358,
      "ĠJakarta": 1359,
      "ork": 1360,
      "ĠPert": 1361,
      "urn": 1362,
      "Ġsistem": 1363,
      "va": 1364,
      "hy": 1365,
      "Ġsp": 1366,
      "ĠOktober": 1367,
      "perasi": 1368,
      "ajaan": 1369,
      "rans": 1370,
      "unjuk": 1371,
      "iwa": 1372,
      "ij": 1373,
      "ekat": 1374,
      "Ġbaik": 1375,
      "ory": 1376,
      "ĠRep": 1377,
      "aksi": 1378,
      "ĠBelanda": 1379,
      "rom": 1380,
      "Ġterdapat": 1381,
      "ĠMin": 1382,
      "Ġharus": 1383,
      "amanya": 1384,
      "Ġdilakukan": 1385,
      "ampil": 1386,
      "angka": 1387,
      "Ġmener": 1388,
      "ropa": 1389,
      "edi": 1390,
      "elar": 1391,
      "ĠBand": 1392,
      "Ġalbum": 1393,
      "inkan": 1394,
      "Ġseti": 1395,
      "atur": 1396,
      "araan": 1397,
      "ron": 1398,
      "tas": 1399,
      "Ġdiri": 1400,
      "elaj": 1401,
      "uatan": 1402,
      "ĠProvinsi": 1403,
      "Ġ13": 1404,
      "Ġasal": 1405,
      "versi": 1406,
      "te": 1407,
      "ĠPi": 1408,
      "Ġ14": 1409,
      "ebr": 1410,
      "ity": 1411,
      "hargaan": 1412,
      "Ġseluruh": 1413,
      "ĠNegeri": 1414,
      "Ġmengg": 1415,
      "Ġdin": 1416,
      "ore": 1417,
      "Ġdiber": 1418,
      "iz": 1419,
      "eksi": 1420,
      "udaya": 1421,
      "usus": 1422,
      "ĠEropa": 1423,
      "lub": 1424,
      "ci": 1425,
      "akil": 1426,
      "ambil": 1427,
      "ĠJoh": 1428,
      "ens": 1429,
      "ĠCar": 1430,
      "alur": 1431,
      "etah": 1432,
      "ubungan": 1433,
      "ĠKa": 1434,
      "Ġmeninggal": 1435,
      "Ġpel": 1436,
      "Ġditerbitkan": 1437,
      "osisi": 1438,
      "198": 1439,
      "uti": 1440,
      "ting": 1441,
      "ĠDunia": 1442,
      "ĠIslam": 1443,
      "ĠPa": 1444,
      "ond": 1445,
      "..": 1446,
      "Ġ2010": 1447,
      "ĠIt": 1448,
      "ĠTengah": 1449,
      "atif": 1450,
      "Ġtelevisi": 1451,
      "ĠEk": 1452,
      "Ġpers": 1453,
      "ĠSelain": 1454,
      "inasi": 1455,
      "Ġkarya": 1456,
      "ĠJuli": 1457,
      "ate": 1458,
      "urang": 1459,
      "ĠKorea": 1460,
      "Ġbernama": 1461,
      "ĠMusi": 1462,
      "ith": 1463,
      "adang": 1464,
      "baik": 1465,
      "Ġpemain": 1466,
      "ĠHar": 1467,
      "ĠSur": 1468,
      "ĠSy": 1469,
      "ongkok": 1470,
      "orld": 1471,
      "ipun": 1472,
      "ustus": 1473,
      "Ġsementara": 1474,
      "ĠSin": 1475,
      "ĠRos": 1476,
      "ĠApril": 1477,
      "ank": 1478,
      "ĠMaret": 1479,
      "men": 1480,
      "Ġ11": 1481,
      "iet": 1482,
      "Ġen": 1483,
      "eskipun": 1484,
      "ĠIndia": 1485,
      "Ġon": 1486,
      "Ġjumlah": 1487,
      "Ġz": 1488,
      "Ġdig": 1489,
      "tion": 1490,
      "IS": 1491,
      "ĠJuni": 1492,
      "olik": 1493,
      "ira": 1494,
      "min": 1495,
      "gab": 1496,
      "alog": 1497,
      "aruh": 1498,
      "ĠSejarah": 1499,
      "Ġ193": 1500,
      "23": 1501,
      "ĠTiongkok": 1502,
      "Ġwar": 1503,
      "ĠKon": 1504,
      "ĠKel": 1505,
      "Ġsering": 1506,
      ".)": 1507,
      "Ġ2008": 1508,
      "uah": 1509,
      "enter": 1510,
      "Ġek": 1511,
      "ĠBo": 1512,
      "Ġpolitik": 1513,
      "ĠEl": 1514,
      "ulang": 1515,
      "ĠDesember": 1516,
      "ward": 1517,
      "ĠGe": 1518,
      "ĠDem": 1519,
      "Ġkeh": 1520,
      "imb": 1521,
      "onomi": 1522,
      "Ġperk": 1523,
      "ĠCo": 1524,
      "truk": 1525,
      "Ġmemba": 1526,
      "Ġeks": 1527,
      "por": 1528,
      "Ġmod": 1529,
      "Ġto": 1530,
      "empuan": 1531,
      "Ġmil": 1532,
      "epat": 1533,
      "Ġsetiap": 1534,
      "ĠSe": 1535,
      "bangun": 1536,
      "ĠAgustus": 1537,
      "ĠAustr": 1538,
      "Ġap": 1539,
      "ĠNasional": 1540,
      "Ġberhasil": 1541,
      "ie": 1542,
      "ĠJanuari": 1543,
      "Ġ,": 1544,
      "war": 1545,
      "urkan": 1546,
      "ulau": 1547,
      "ĠâĢ": 1548,
      "nis": 1549,
      "iri": 1550,
      "sk": 1551,
      "arti": 1552,
      "land": 1553,
      "iti": 1554,
      "eop": 1555,
      "17": 1556,
      "Ġbentuk": 1557,
      "ĠHal": 1558,
      "arier": 1559,
      "ĠNovember": 1560,
      "Ġsebagian": 1561,
      "Ġmemberikan": 1562,
      "pan": 1563,
      "Ġgr": 1564,
      "Ġperm": 1565,
      "Ġpop": 1566,
      "Ġsebelumnya": 1567,
      "ban": 1568,
      "ĠKal": 1569,
      "Ġmanusia": 1570,
      "ĠSch": 1571,
      "ĠGereja": 1572,
      "ĠAir": 1573,
      "ral": 1574,
      "Ġdirilis": 1575,
      "ĠRaja": 1576,
      "Ġlagi": 1577,
      "Ġberl": 1578,
      "Ġ2007": 1579,
      "Ġberikut": 1580,
      "Ġilmiah": 1581,
      "ĠPerang": 1582,
      "enang": 1583,
      "16": 1584,
      "umbuhan": 1585,
      "eli": 1586,
      "ger": 1587,
      "15": 1588,
      "osial": 1589,
      "ahari": 1590,
      "Ġ2014": 1591,
      "Ġmakan": 1592,
      "co": 1593,
      "aria": 1594,
      "atian": 1595,
      "Ġmin": 1596,
      "oto": 1597,
      "utrad": 1598,
      "res": 1599,
      "Ġpun": 1600,
      "ku": 1601,
      "ektur": 1602,
      "ĠLalat": 1603,
      "ganisasi": 1604,
      "uri": 1605,
      "ĠMenteri": 1606,
      "Ġpener": 1607,
      "ĠMat": 1608,
      "ost": 1609,
      "ĠAf": 1610,
      "Ġsekolah": 1611,
      "entukan": 1612,
      "erti": 1613,
      "akai": 1614,
      "antai": 1615,
      "eum": 1616,
      "ema": 1617,
      "ife": 1618,
      "Ġlaut": 1619,
      "ĠPresiden": 1620,
      "Ġakhirnya": 1621,
      "okal": 1622,
      "Ġpela": 1623,
      "aks": 1624,
      "Ġweb": 1625,
      "ĠBar": 1626,
      "2011": 1627,
      "ĠPut": 1628,
      "yo": 1629,
      "ilihan": 1630,
      "Ġsebesar": 1631,
      "Ġ2013": 1632,
      "ugas": 1633,
      "gabung": 1634,
      "Ġkeluarga": 1635,
      "ote": 1636,
      "ick": 1637,
      "ukup": 1638,
      "itab": 1639,
      "orn": 1640,
      "ĠPemain": 1641,
      "alami": 1642,
      "anita": 1643,
      "Ġdih": 1644,
      "ĠBat": 1645,
      "main": 1646,
      "utradara": 1647,
      "Ġtanah": 1648,
      "Ġdem": 1649,
      "ĠFebr": 1650,
      "ite": 1651,
      "ideo": 1652,
      "Ġperempuan": 1653,
      "Ġ'": 1654,
      "rama": 1655,
      "ator": 1656,
      "ĠPh": 1657,
      "ĠRepublik": 1658,
      "Ġ2016": 1659,
      "mad": 1660,
      "alig": 1661,
      "ĠMah": 1662,
      "iss": 1663,
      "akit": 1664,
      "embangan": 1665,
      "Ġtra": 1666,
      "her": 1667,
      "Ġpemerintahan": 1668,
      "ment": 1669,
      "iman": 1670,
      "Ġterakhir": 1671,
      "Ġ2006": 1672,
      "ĠFran": 1673,
      "ĠJohn": 1674,
      "Ġdep": 1675,
      "upa": 1676,
      "ĠTahun": 1677,
      "ĠSeba": 1678,
      "Ġacara": 1679,
      "Ġmasuk": 1680,
      "Ġpemerintah": 1681,
      "ĠPas": 1682,
      "olog": 1683,
      "Ġ2015": 1684,
      "Ġpendidikan": 1685,
      "uncul": 1686,
      "Ġfor": 1687,
      "ary": 1688,
      "Ġmengen": 1689,
      "Ġintern": 1690,
      "Ġdat": 1691,
      "Ġ2019": 1692,
      "Ġ:": 1693,
      "Ġhukum": 1694,
      "idupan": 1695,
      "Ġel": 1696,
      "Ġkata": 1697,
      "andingan": 1698,
      "ĠLar": 1699,
      "Ġkhusus": 1700,
      "Ġjenis": 1701,
      "Ġditemukan": 1702,
      "ungsi": 1703,
      "ĠChe": 1704,
      "ilai": 1705,
      "antu": 1706,
      "12": 1707,
      "Ġ/": 1708,
      "Ġcukup": 1709,
      "ingin": 1710,
      "Ġkont": 1711,
      "ĠAngk": 1712,
      "ĠFebruari": 1713,
      "ĠMal": 1714,
      "omor": 1715,
      "Ġdekat": 1716,
      "ujuan": 1717,
      "uv": 1718,
      "Ġnamun": 1719,
      "umber": 1720,
      "qu": 1721,
      "13": 1722,
      "Ġkapal": 1723,
      "Ġmemen": 1724,
      "abase": 1725,
      "ny": 1726,
      "ĠDe": 1727,
      "14": 1728,
      "Ġberdasarkan": 1729,
      "arl": 1730,
      "Ġbermain": 1731,
      "ĠPulau": 1732,
      "omb": 1733,
      "ĠMo": 1734,
      "Ġ=": 1735,
      "II": 1736,
      "Ġtetap": 1737,
      "ĠKir": 1738,
      "ĠKatolik": 1739,
      "Ġses": 1740,
      "ĠMala": 1741,
      "Ġre": 1742,
      "ĠKrist": 1743,
      "ĠWil": 1744,
      "Ġka": 1745,
      "Ġluas": 1746,
      "ĠSam": 1747,
      "ĠKeb": 1748,
      "Ġproses": 1749,
      "Ġbidang": 1750,
      "lor": 1751,
      "ass": 1752,
      "gen": 1753,
      "uler": 1754,
      "Ġkm": 1755,
      "one": 1756,
      ".\"": 1757,
      "197": 1758,
      "Ġpasukan": 1759,
      "usun": 1760,
      "ĠKes": 1761,
      "enar": 1762,
      "ĠEd": 1763,
      "ĠLife": 1764,
      "ĠTr": 1765,
      "ĠPag": 1766,
      "usk": 1767,
      "ĠSu": 1768,
      "Ġbekerja": 1769,
      "ampung": 1770,
      "usaha": 1771,
      "ĠAsia": 1772,
      "Ġkal": 1773,
      "wak": 1774,
      "anyi": 1775,
      "Ġdic": 1776,
      "Ġlahir": 1777,
      "Ġ2018": 1778,
      "Ġdiba": 1779,
      "za": 1780,
      "ĠSw": 1781,
      "IT": 1782,
      "Ġempat": 1783,
      "ultan": 1784,
      "atat": 1785,
      "Ġsejarah": 1786,
      "ĠSel": 1787,
      "Ġberbeda": 1788,
      "embang": 1789,
      "ask": 1790,
      "ĠRusia": 1791,
      "ret": 1792,
      "Ġlalu": 1793,
      "adem": 1794,
      "Ġnasional": 1795,
      "sik": 1796,
      "Ġversi": 1797,
      "Ġhasil": 1798,
      "yu": 1799,
      "ĠSal": 1800,
      "ona": 1801,
      "ĠTel": 1802,
      "ĠAnn": 1803,
      "Ġkerus": 1804,
      "AR": 1805,
      "ĠAnd": 1806,
      "Ġmendapatkan": 1807,
      "asti": 1808,
      "ĠMereka": 1809,
      "Ġmuncul": 1810,
      "Ġ2017": 1811,
      "ĠBis": 1812,
      "Ġsur": 1813,
      "istrik": 1814,
      "ibat": 1815,
      "Ġsekarang": 1816,
      "Ġkelompok": 1817,
      "Ġind": 1818,
      "Ġdid": 1819,
      "Ġjiwa": 1820,
      "rat": 1821,
      "ĠPartai": 1822,
      "Ġ2020": 1823,
      "ĠNic": 1824,
      "Ġmaka": 1825,
      "emba": 1826,
      "eae": 1827,
      "unjukkan": 1828,
      "Ã¡": 1829,
      "Ġumumnya": 1830,
      "unung": 1831,
      "dukung": 1832,
      "fat": 1833,
      "Ġ2005": 1834,
      "uskan": 1835,
      "ĠInternational": 1836,
      "eoptera": 1837,
      "ĠSitus": 1838,
      "io": 1839,
      "Ġprovinsi": 1840,
      "ĠColeoptera": 1841,
      "Ġdidirikan": 1842,
      "ubu": 1843,
      "ĠDip": 1844,
      "Ġmencapai": 1845,
      "erta": 1846,
      "Ġpusat": 1847,
      "ĠSekolah": 1848,
      "ĠWorld": 1849,
      "mat": 1850,
      "akyat": 1851,
      "Ġjalan": 1852,
      "mer": 1853,
      "ĠNo": 1854,
      "indah": 1855,
      "ĠWar": 1856,
      "ĠNor": 1857,
      "aranya": 1858,
      "ikuti": 1859,
      "ĠLi": 1860,
      "erita": 1861,
      "Ġmenyatakan": 1862,
      "Ġbin": 1863,
      "yan": 1864,
      "ĠRaya": 1865,
      "ĠInd": 1866,
      "ĠIr": 1867,
      "Åį": 1868,
      "com": 1869,
      "Ġtekn": 1870,
      "Ġbarat": 1871,
      "Ġmuda": 1872,
      "akses": 1873,
      "asilkan": 1874,
      "Ġsub": 1875,
      "Ġmet": 1876,
      "ĠMak": 1877,
      "Ġtanpa": 1878,
      "ĠAt": 1879,
      "ĠGo": 1880,
      "obil": 1881,
      "Ġsuara": 1882,
      "ĠItalia": 1883,
      "bert": 1884,
      "Ġkomun": 1885,
      "note": 1886,
      "Ġkerusakan": 1887,
      "encana": 1888,
      "ĠUK": 1889,
      "Ġmaupun": 1890,
      "mainan": 1891,
      "isah": 1892,
      "Ġte": 1893,
      "ji": 1894,
      "Ġ30": 1895,
      "lim": 1896,
      "ans": 1897,
      "ĠBeberapa": 1898,
      "Ġjuta": 1899,
      "Ġ2004": 1900,
      "ungkin": 1901,
      "Ġplanet": 1902,
      "Ġlangsung": 1903,
      "ĠIl": 1904,
      "ĠYork": 1905,
      "ĠAward": 1906,
      "Ġpenc": 1907,
      "ĠIT": 1908,
      "rip": 1909,
      "ĠBi": 1910,
      "Ġterkenal": 1911,
      "ĠPendidikan": 1912,
      "ustri": 1913,
      "Ġdibuat": 1914,
      "ĠPal": 1915,
      "okasi": 1916,
      "elit": 1917,
      "Ġdianggap": 1918,
      "Ġpenggun": 1919,
      "Ġperang": 1920,
      "ading": 1921,
      "iode": 1922,
      "ĠGen": 1923,
      "antikan": 1924,
      "ĠOl": 1925,
      "Ġtinggal": 1926,
      "jo": 1927,
      "50": 1928,
      "ĠBahasa": 1929,
      "wi": 1930,
      "ve": 1931,
      "yar": 1932,
      "ĠCatatan": 1933,
      "Ġpenting": 1934,
      "Ġkereta": 1935,
      "ĠAlbum": 1936,
      "Ġpesawat": 1937,
      "agu": 1938,
      "Ġgelar": 1939,
      "ris": 1940,
      "ulasi": 1941,
      "Ġgrup": 1942,
      "awasan": 1943,
      "Ġapi": 1944,
      "ilip": 1945,
      "Ġmiliter": 1946,
      "ide": 1947,
      "akar": 1948,
      "Ġbatang": 1949,
      "Ġpet": 1950,
      "lahan": 1951,
      "unyai": 1952,
      "dana": 1953,
      "eman": 1954,
      "Ġwa": 1955,
      "udd": 1956,
      "urun": 1957,
      "Ġagama": 1958,
      "ĠDengan": 1959,
      "sh": 1960,
      "ĠSpecies": 1961,
      "etahui": 1962,
      "isode": 1963,
      "ulkan": 1964,
      "ĠDan": 1965,
      "ĠSoc": 1966,
      "az": 1967,
      "roduksi": 1968,
      "ler": 1969,
      "ĠCom": 1970,
      "Ġmatahari": 1971,
      "Ġmenjabat": 1972,
      "asis": 1973,
      "24": 1974,
      "ĠAngkatan": 1975,
      "ĠKed": 1976,
      "ĠTan": 1977,
      "Ġperj": 1978,
      "Ġterc": 1979,
      "uki": 1980,
      "Ġwanita": 1981,
      "ĠRes": 1982,
      "Ġposisi": 1983,
      "Ġart": 1984,
      "oph": 1985,
      "dul": 1986,
      "ear": 1987,
      "urunan": 1988,
      "aku": 1989,
      "sek": 1990,
      "kov": 1991,
      "ĠPemerint": 1992,
      "ĠDr": 1993,
      "Ġmempunyai": 1994,
      "adakan": 1995,
      "Ġmengenai": 1996,
      "Ġtand": 1997,
      "):": 1998,
      "Ġketiga": 1999,
      "ĠLarva": 2000,
      "ukaan": 2001,
      "ĠUniversity": 2002,
      "ĠHist": 2003,
      "Ġkr": 2004,
      "Ġmungkin": 2005,
      "of": 2006,
      "ĠSula": 2007,
      "utama": 2008,
      "isan": 2009,
      "30": 2010,
      "tik": 2011,
      "ĠBour": 2012,
      "list": 2013,
      "esin": 2014,
      "alif": 2015,
      "ash": 2016,
      "urahan": 2017,
      "ice": 2018,
      "ĠPiala": 2019,
      "uanya": 2020,
      "ĠUntuk": 2021,
      "ical": 2022,
      "ĠTV": 2023,
      "Ġup": 2024,
      "Ġ22": 2025,
      "adan": 2026,
      "anding": 2027,
      "Sp": 2028,
      "erang": 2029,
      "ĠAceh": 2030,
      "Ġmelawan": 2031,
      "ĠSumat": 2032,
      "upan": 2033,
      "Ġmenunjukkan": 2034,
      "ĠAda": 2035,
      "ĠKh": 2036,
      "ĠMenurut": 2037,
      "Ġsi": 2038,
      "ĠPara": 2039,
      "ĠPang": 2040,
      "Ġberubah": 2041,
      "olusi": 2042,
      "Ġsosial": 2043,
      "truktur": 2044,
      "ĠMuh": 2045,
      "ĠPemeran": 2046,
      "Ġbuku": 2047,
      "Ġsuku": 2048,
      "IN": 2049,
      "Ġbukan": 2050,
      "dang": 2051,
      "Ġkaki": 2052,
      "Ġsedang": 2053,
      "Ġklub": 2054,
      "Ġutara": 2055,
      "Ġibu": 2056,
      "arik": 2057,
      "Ġmengalami": 2058,
      "Ġraja": 2059,
      "uju": 2060,
      "ĠKap": 2061,
      "Ġyak": 2062,
      "uth": 2063,
      "Ġselatan": 2064,
      "inc": 2065,
      "196": 2066,
      "unuh": 2067,
      "tic": 2068,
      "endah": 2069,
      "Ġjika": 2070,
      "Ġ2001": 2071,
      "Ġtradisi": 2072,
      "ĠDis": 2073,
      "Ġmenik": 2074,
      "Ġot": 2075,
      "Ġtingkat": 2076,
      "formasi": 2077,
      "Ġmenerima": 2078,
      "andar": 2079,
      "ĠSi": 2080,
      "Ġe": 2081,
      "agn": 2082,
      "Ġger": 2083,
      "Ġhak": 2084,
      "Ġ[": 2085,
      "Ġlama": 2086,
      "ĠBaru": 2087,
      "Ġagar": 2088,
      "atus": 2089,
      "ĠSan": 2090,
      "ĠKo": 2091,
      "ĠHer": 2092,
      "ĠSta": 2093,
      "ĠKan": 2094,
      "ĠIS": 2095,
      "ĠSungai": 2096,
      "ĠNegara": 2097,
      "Ġpulau": 2098,
      "ĠTe": 2099,
      "umen": 2100,
      "Ġtumbuhan": 2101,
      "ĠAmeric": 2102,
      "ebang": 2103,
      "Ġpenulis": 2104,
      "elakang": 2105,
      "ria": 2106,
      "11": 2107,
      "rell": 2108,
      "Ġprogram": 2109,
      "ĠCon": 2110,
      "Ġtimur": 2111,
      "ĠCheck": 2112,
      "Ġditulis": 2113,
      "sen": 2114,
      "arian": 2115,
      "ley": 2116,
      "ĠHe": 2117,
      "ebor": 2118,
      "ĠPan": 2119,
      "PR": 2120,
      "ĠIni": 2121,
      "ren": 2122,
      "Ġdasar": 2123,
      "ĠDiakses": 2124,
      "ame": 2125,
      "âĢĿ": 2126,
      "ĠLat": 2127,
      "entu": 2128,
      "ĠNicol": 2129,
      "eder": 2130,
      "Ġ)": 2131,
      "ĠMet": 2132,
      "Ġdij": 2133,
      "ĠKirk": 2134,
      "ĠMon": 2135,
      "jata": 2136,
      "Ġkepala": 2137,
      "ĠKetua": 2138,
      "Ġdatabase": 2139,
      "itania": 2140,
      "ĠDewan": 2141,
      "uai": 2142,
      "ĠChecklist": 2143,
      "Ġsk": 2144,
      "mu": 2145,
      "Ġseri": 2146,
      "ĠSaat": 2147,
      "ĠMad": 2148,
      "isata": 2149,
      "Ġpan": 2150,
      "NI": 2151,
      "wesi": 2152,
      "Ġtanduk": 2153,
      "Ġbahan": 2154,
      "Ġ1999": 2155,
      "Ġhubungan": 2156,
      "Ġmengan": 2157,
      "ubuh": 2158,
      "Ġby": 2159,
      "ĠLaut": 2160,
      "Ġist": 2161,
      "Ġ2021": 2162,
      "ĠUm": 2163,
      "raga": 2164,
      "ihak": 2165,
      "Ġputra": 2166,
      "ĠOn": 2167,
      "alogue": 2168,
      "arge": 2169,
      "ĠSup": 2170,
      "ĠPenghargaan": 2171,
      "ĠArab": 2172,
      "bi": 2173,
      "pen": 2174,
      "isar": 2175,
      "fa": 2176,
      "enderal": 2177,
      "ino": 2178,
      "Ġpertandingan": 2179,
      "Ġkat": 2180,
      "ĠReading": 2181,
      "ĠPers": 2182,
      "Ġbergabung": 2183,
      "Ġayah": 2184,
      "ros": 2185,
      "48": 2186,
      "Ġsumber": 2187,
      "FA": 2188,
      "Ġ2002": 2189,
      "ampilkan": 2190,
      "ĠTav": 2191,
      "rard": 2192,
      "ĠAnnual": 2193,
      "alnya": 2194,
      "awi": 2195,
      "eph": 2196,
      "anak": 2197,
      "unani": 2198,
      "bo": 2199,
      "Ġterbesar": 2200,
      "ungg": 2201,
      "org": 2202,
      "ric": 2203,
      "ital": 2204,
      "caya": 2205,
      "ora": 2206,
      "ĠCatalogue": 2207,
      "anggung": 2208,
      "ĠKerajaan": 2209,
      "adaan": 2210,
      "ĠDir": 2211,
      "onia": 2212,
      "ĠSec": 2213,
      "badi": 2214,
      "ontoh": 2215,
      "Ġmeningkat": 2216,
      "In": 2217,
      "Ġditebang": 2218,
      "ime": 2219,
      "ĠGu": 2220,
      "Ġperiode": 2221,
      "ĠSk": 2222,
      "istik": 2223,
      "embangkan": 2224,
      "enggara": 2225,
      "ĠPeny": 2226,
      "ĠPar": 2227,
      "Ġpri": 2228,
      "ĠHo": 2229,
      "ĠSeperti": 2230,
      "Ġdimulai": 2231,
      "ĠSulawesi": 2232,
      "rik": 2233,
      "Ġcara": 2234,
      "ĠKristen": 2235,
      "empuran": 2236,
      "Ġmemenangkan": 2237,
      "Ġep": 2238,
      "aian": 2239,
      "ulit": 2240,
      "ĠNicolson": 2241,
      "ĠTIT": 2242,
      "Ġmengebor": 2243,
      "ganti": 2244,
      "25": 2245,
      "ĠAgung": 2246,
      "ĠLagu": 2247,
      "akilian": 2248,
      "ight": 2249,
      "ĠTavakilian": 2250,
      "ĠTITAN": 2251,
      "uluh": 2252,
      "ĠITIS": 2253,
      "goin": 2254,
      "AS": 2255,
      "ulauan": 2256,
      "ĠOuv": 2257,
      "ĠBourgoin": 2258,
      "ĠBailly": 2259,
      "Ġlingk": 2260,
      "argeon": 2261,
      "ĠBaillargeon": 2262,
      "ĠOrrell": 2263,
      "ĠRoskov": 2264,
      "ĠBisby": 2265,
      "ĠOuvrard": 2266,
      "linawan": 2267,
      "ĠPaglinawan": 2268,
      "Ġmengambil": 2269,
      "ĠKu": 2270,
      "ĠMuseum": 2271,
      "Ġkurang": 2272,
      "rid": 2273,
      "ubahan": 2274,
      "ĠTur": 2275,
      "Ġ2003": 2276,
      "ĠâĢľ": 2277,
      "ĠIb": 2278,
      "ute": 2279,
      "ĠBritania": 2280,
      "ner": 2281,
      "ko": 2282,
      "Ġkor": 2283,
      "ĠUd": 2284,
      "ĠAustralia": 2285,
      "Ġjalur": 2286,
      "ulus": 2287,
      "giatan": 2288,
      "ames": 2289,
      "lay": 2290,
      "bur": 2291,
      "Ġyakni": 2292,
      "udul": 2293,
      "uno": 2294,
      "Ġsejumlah": 2295,
      "ingg": 2296,
      "ĠAngg": 2297,
      "yle": 2298,
      "ministr": 2299,
      "Ġprof": 2300,
      "ĠMuham": 2301,
      "Ġet": 2302,
      "aringan": 2303,
      "ean": 2304,
      "Ã¼": 2305,
      "ĠYunani": 2306,
      "Ġterutama": 2307,
      "ungai": 2308,
      "anto": 2309,
      "let": 2310,
      "rika": 2311,
      "ĠKepala": 2312,
      "yanan": 2313,
      "Ġinternasional": 2314,
      "landia": 2315,
      "ĠSc": 2316,
      "jah": 2317,
      "Ġmenulis": 2318,
      "Ġmembentuk": 2319,
      "oba": 2320,
      "ĠDa": 2321,
      "Ġkol": 2322,
      "lahraga": 2323,
      "Ġlima": 2324,
      "bangan": 2325,
      "ĠPet": 2326,
      "ĠPat": 2327,
      "Ġtubuh": 2328,
      "ĠPes": 2329,
      "ĠWal": 2330,
      "embaga": 2331,
      "Ġseni": 2332,
      "operasi": 2333,
      "una": 2334,
      "Ġ23": 2335,
      "ebar": 2336,
      "old": 2337,
      "Ġsaja": 2338,
      "Ġproduksi": 2339,
      "Ġbatu": 2340,
      "Ġvideo": 2341,
      "ts": 2342,
      "ĠTak": 2343,
      "asus": 2344,
      "abak": 2345,
      "oro": 2346,
      "Ġdibangun": 2347,
      "Ġudara": 2348,
      "Ġlaki": 2349,
      "ez": 2350,
      "ĠDep": 2351,
      "The": 2352,
      "Ġrek": 2353,
      "Ġberarti": 2354,
      "ysia": 2355,
      "rit": 2356,
      "umumkan": 2357,
      "laki": 2358,
      "ribu": 2359,
      "Ġbelakang": 2360,
      "uman": 2361,
      "andang": 2362,
      "ĠLiga": 2363,
      "osa": 2364,
      "ĠStasiun": 2365,
      "yp": 2366,
      "ll": 2367,
      "Ġis": 2368,
      "ater": 2369,
      "ĠDaerah": 2370,
      "Ġlalat": 2371,
      "Ġbudaya": 2372,
      "ĠBur": 2373,
      "Ġmak": 2374,
      "BN": 2375,
      "Ġmenikah": 2376,
      "ampir": 2377,
      "uangan": 2378,
      "Ġti": 2379,
      "ĠLon": 2380,
      "ĠMic": 2381,
      "ĠSebagai": 2382,
      "Ġmakanan": 2383,
      "ĠStr": 2384,
      "anyol": 2385,
      "Ġstasiun": 2386,
      "ebula": 2387,
      "jid": 2388,
      "Ġjam": 2389,
      "ĠEx": 2390,
      "masing": 2391,
      "ĠPT": 2392,
      "ack": 2393,
      "Ġ21": 2394,
      "âĢĻ": 2395,
      "ĠDari": 2396,
      "anjian": 2397,
      "row": 2398,
      "rig": 2399,
      "aih": 2400,
      "ool": 2401,
      "Ġtah": 2402,
      "rasi": 2403,
      "ĠAS": 2404,
      "ood": 2405,
      "ins": 2406,
      "yek": 2407,
      "Ġmemulai": 2408,
      "Ġalam": 2409,
      "193": 2410,
      "amen": 2411,
      "oko": 2412,
      "Ġmobil": 2413,
      "ĠUdara": 2414,
      "Ġmenurut": 2415,
      "batasan": 2416,
      "ĠVer": 2417,
      "Ġekonomi": 2418,
      "Ġbiasa": 2419,
      "les": 2420,
      "ĠBen": 2421,
      "akter": 2422,
      "ĠMe": 2423,
      "ĠPress": 2424,
      "dis": 2425,
      "Ġ2022": 2426,
      "Ġmenghasilkan": 2427,
      "Ġmenemukan": 2428,
      "askan": 2429,
      "pada": 2430,
      "Ġnebula": 2431,
      "ubern": 2432,
      "ambahan": 2433,
      "Ġilmu": 2434,
      "elajar": 2435,
      "uter": 2436,
      "ehatan": 2437,
      "Ġnegeri": 2438,
      "sur": 2439,
      "Ġkarakter": 2440,
      "oni": 2441,
      "no": 2442,
      "Ġdiberikan": 2443,
      "ĠDav": 2444,
      "Ġtrans": 2445,
      "ikian": 2446,
      "yi": 2447,
      "ĠMalaysia": 2448,
      "Ġsebelah": 2449,
      "Ġbelum": 2450,
      "Ġsebanyak": 2451,
      "Ġproduk": 2452,
      "Ġmengatakan": 2453,
      "ĠSing": 2454,
      "utup": 2455,
      "ĠMy": 2456,
      "ĠSpanyol": 2457,
      "ĠAfrika": 2458,
      "ww": 2459,
      "Ġbala": 2460,
      "alik": 2461,
      "ĠKarena": 2462,
      "Ġmasing": 2463,
      "Ġbur": 2464,
      "ĠHistory": 2465,
      "atuh": 2466,
      ".\".": 2467,
      "Ġsitus": 2468,
      "ĠKetika": 2469,
      "Ġsedangkan": 2470,
      "Ġbis": 2471,
      "ĠGer": 2472,
      "ĠKalim": 2473,
      "Ġsin": 2474,
      "ĠAllah": 2475,
      "batan": 2476,
      "Ġpendek": 2477,
      "Ġ26": 2478,
      "Ġberjudul": 2479,
      "Ġtengah": 2480,
      "194": 2481,
      "der": 2482,
      "ungi": 2483,
      "ĠSumatera": 2484,
      "ĠDiptera": 2485,
      "Ġsungai": 2486,
      "Ġdrama": 2487,
      "Ġdok": 2488,
      "ĠHa": 2489,
      "Ġjauh": 2490,
      "ubl": 2491,
      "uskupan": 2492,
      "etisi": 2493,
      "ĠGre": 2494,
      "ĠMil": 2495,
      "Ġberm": 2496,
      "ohon": 2497,
      "2010": 2498,
      "ĠKomun": 2499,
      "Species": 2500,
      "fer": 2501,
      "Ġperan": 2502,
      "visi": 2503,
      "Ġmeskipun": 2504,
      "ĠJalan": 2505,
      "ĠTekn": 2506,
      "ĠInternasional": 2507,
      "ampak": 2508,
      "Ġkab": 2509,
      "Ġterus": 2510,
      "ĠPri": 2511,
      "Ġbumi": 2512,
      "ĠLondon": 2513,
      "Ġcat": 2514,
      "ĠKomp": 2515,
      "jek": 2516,
      "ongan": 2517,
      "Ġpihak": 2518,
      "ĠKeh": 2519,
      "alis": 2520,
      "Ġdepan": 2521,
      "Ġpermainan": 2522,
      "ãĥ": 2523,
      "ukuran": 2524,
      "ĠKong": 2525,
      "irim": 2526,
      "ĠTa": 2527,
      "26": 2528,
      "Ġ190": 2529,
      "ĠÃ": 2530,
      "utradarai": 2531,
      "rap": 2532,
      "Ġterbentuk": 2533,
      "Ġdirinya": 2534,
      "ĠâĢĶ": 2535,
      "rael": 2536,
      "Ġawalnya": 2537,
      "ĠBe": 2538,
      "takan": 2539,
      "tt": 2540,
      "ĠAnggota": 2541,
      "way": 2542,
      "ext": 2543,
      "ono": 2544,
      "istiwa": 2545,
      "Ġmis": 2546,
      "adio": 2547,
      "195": 2548,
      "Ġorganisasi": 2549,
      "Ġkerajaan": 2550,
      "ĠTerbaik": 2551,
      "ubernur": 2552,
      "Ġstudi": 2553,
      "ikit": 2554,
      "ĠStudi": 2555,
      "27": 2556,
      "ĠDin": 2557,
      "Ġmembantu": 2558,
      "ence": 2559,
      "Ġsepanjang": 2560,
      "ampu": 2561,
      "Ġakibat": 2562,
      "itam": 2563,
      "antor": 2564,
      "Ġmesin": 2565,
      "ĠCenter": 2566,
      "ĠProgram": 2567,
      "ĠKepulauan": 2568,
      "Ġ27": 2569,
      "uara": 2570,
      "Ġtertentu": 2571,
      "ect": 2572,
      "uf": 2573,
      "Ġmenyel": 2574,
      "Ġmilik": 2575,
      "liam": 2576,
      "ĠMeskipun": 2577,
      "sy": 2578,
      "ĠRa": 2579,
      "ĠProf": 2580,
      "Ġlap": 2581,
      "Ġpember": 2582,
      "via": 2583,
      "ilangan": 2584,
      "Ġtokoh": 2585,
      "osp": 2586,
      "ĠMela": 2587,
      "ĠKalimantan": 2588,
      "Ġband": 2589,
      "arakan": 2590,
      "Ġef": 2591,
      "Ġpermukaan": 2592,
      "sip": 2593,
      "atkan": 2594,
      "Ġpekerja": 2595,
      "iputi": 2596,
      "artemen": 2597,
      "Ġmah": 2598,
      "Ġkehidupan": 2599,
      "Ġ28": 2600,
      "impinan": 2601,
      "TV": 2602,
      "Ġorbit": 2603,
      "atas": 2604,
      "Ġsing": 2605,
      "ĠAmerican": 2606,
      "align": 2607,
      "Ġbangunan": 2608,
      "ement": 2609,
      "ĠAh": 2610,
      "ĠYang": 2611,
      "antung": 2612,
      "Ġmasalah": 2613,
      "Ġmemas": 2614,
      "RI": 2615,
      "alaman": 2616,
      "chi": 2617,
      "Ġmenyebut": 2618,
      "ĠBul": 2619,
      "Ġsesuai": 2620,
      "29": 2621,
      "Ġdata": 2622,
      "ektr": 2623,
      "hat": 2624,
      "Ġmengikuti": 2625,
      "ĠOrang": 2626,
      "Ġmus": 2627,
      "sama": 2628,
      "ĠYah": 2629,
      "Ġwarga": 2630,
      "ĠIII": 2631,
      "ĠComp": 2632,
      "tim": 2633,
      "Ġ1998": 2634,
      "Ġmelihat": 2635,
      "inggu": 2636,
      "engaruh": 2637,
      "ÃŃ": 2638,
      "yn": 2639,
      "dag": 2640,
      "Ġim": 2641,
      "anjung": 2642,
      "unga": 2643,
      "28": 2644,
      "Ġkerja": 2645,
      "dus": 2646,
      "Ġters": 2647,
      "Ġkawasan": 2648,
      "mal": 2649,
      "isaran": 2650,
      "lahkan": 2651,
      "Ã³": 2652,
      "wab": 2653,
      "Ġseg": 2654,
      "ilang": 2655,
      "ĠKim": 2656,
      "elitian": 2657,
      "andia": 2658,
      "Ġcerita": 2659,
      "ath": 2660,
      "ĠBesar": 2661,
      "oksi": 2662,
      "Ġem": 2663,
      "Ġmew": 2664,
      "ĠYo": 2665,
      "oviet": 2666,
      "sc": 2667,
      "ĠPap": 2668,
      "Ġrendah": 2669,
      "uruhan": 2670,
      "Ġ100": 2671,
      "suatu": 2672,
      "wang": 2673,
      "Ġindustri": 2674,
      "Ġtercatat": 2675,
      "atuan": 2676,
      "ĠIsrael": 2677,
      "ĠSMA": 2678,
      "Ġzaman": 2679,
      "Ġmeliputi": 2680,
      "Ġmenuju": 2681,
      "ten": 2682,
      "emuan": 2683,
      "olak": 2684,
      "Ġpengh": 2685,
      "Ġbahkan": 2686,
      "ĠPend": 2687,
      "Ġsisi": 2688,
      "Ġpenyanyi": 2689,
      "Ġab": 2690,
      "Ġjaringan": 2691,
      "ahanan": 2692,
      "oritas": 2693,
      "ĠPerusahaan": 2694,
      "ĠISBN": 2695,
      "ĠSeri": 2696,
      "Ġkegiatan": 2697,
      "ann": 2698,
      "Ġsah": 2699,
      "stit": 2700,
      "dak": 2701,
      "ĠAsteroid": 2702,
      "omo": 2703,
      "Ġku": 2704,
      "ominasi": 2705,
      "ĠKol": 2706,
      "Ġib": 2707,
      "Ġpenghargaan": 2708,
      "abi": 2709,
      "Ġsedikit": 2710,
      "deka": 2711,
      "Ġmantan": 2712,
      "Ġusia": 2713,
      "ambar": 2714,
      "ech": 2715,
      "ĠCity": 2716,
      "Ġkarier": 2717,
      "Ġmampu": 2718,
      "otor": 2719,
      "ĠBandung": 2720,
      "Ġsesuatu": 2721,
      "Ġdatang": 2722,
      "atunya": 2723,
      "Ġgereja": 2724,
      "ĠKemudian": 2725,
      "ampilan": 2726,
      "eluar": 2727,
      "ĠCor": 2728,
      "ĠSD": 2729,
      "estiv": 2730,
      "Ġmembawa": 2731,
      "Ġtangan": 2732,
      "Ġmenampilkan": 2733,
      "ĠJo": 2734,
      "ĠPor": 2735,
      "ĠKej": 2736,
      "ĠSoviet": 2737,
      "ĠFak": 2738,
      "dah": 2739,
      "amat": 2740,
      "ĠDPR": 2741,
      "lob": 2742,
      "Ġmodern": 2743,
      "ĠGunung": 2744,
      "ire": 2745,
      "ney": 2746,
      "ella": 2747,
      "ĠPort": 2748,
      "amil": 2749,
      "ica": 2750,
      "Ġasli": 2751,
      "Ġsup": 2752,
      "dam": 2753,
      "span": 2754,
      "Ġbintang": 2755,
      "ĠTNI": 2756,
      "Ġruang": 2757,
      "Ġik": 2758,
      "ive": 2759,
      "upati": 2760,
      "ale": 2761,
      "uhkan": 2762,
      "ile": 2763,
      "estival": 2764,
      "Ġstyle": 2765,
      "ĠMc": 2766,
      "urus": 2767,
      "Ġdiketahui": 2768,
      "alanan": 2769,
      "Ġberupa": 2770,
      "Ġob": 2771,
      "Ġpemimpin": 2772,
      "ensis": 2773,
      "ĠRoma": 2774,
      "ĠDen": 2775,
      "Ġlingkungan": 2776,
      "Ġmeraih": 2777,
      "Ġputri": 2778,
      "ĠPusat": 2779,
      "Ġ189": 2780,
      "rah": 2781,
      "otal": 2782,
      "age": 2783,
      "Ġadanya": 2784,
      "Ġberba": 2785,
      "Ġ1990": 2786,
      "rist": 2787,
      "Ġangk": 2788,
      "ited": 2789,
      "Ġmengk": 2790,
      "Ġdaripada": 2791,
      "Ġno": 2792,
      "Ġdaftar": 2793,
      "ĠAsi": 2794,
      "Ġhampir": 2795,
      "gap": 2796,
      "ĠWilayah": 2797,
      "ĠWilliam": 2798,
      "Ġnilai": 2799,
      "Äģ": 2800,
      "Ġsaya": 2801,
      "ĠÎ": 2802,
      "ĠJos": 2803,
      "imana": 2804,
      "oli": 2805,
      "uji": 2806,
      "ĠMuhammad": 2807,
      "ony": 2808,
      "ĠArt": 2809,
      "ekaisaran": 2810,
      "oll": 2811,
      "tain": 2812,
      "akin": 2813,
      "Ġserial": 2814,
      "ĠEp": 2815,
      "adr": 2816,
      "ham": 2817,
      "ĠMay": 2818,
      "use": 2819,
      "Ġperubahan": 2820,
      "Ġbuah": 2821,
      "Ġbangsa": 2822,
      "Ġ29": 2823,
      "Ġmata": 2824,
      "ĠWakil": 2825,
      "anyakan": 2826,
      "Ġdiperk": 2827,
      "ujuh": 2828,
      "anjutnya": 2829,
      "ĠKarier": 2830,
      "laba": 2831,
      "ambarkan": 2832,
      "Ġketurunan": 2833,
      "Ġur": 2834,
      "dion": 2835,
      "trak": 2836,
      "illa": 2837,
      "omat": 2838,
      "angkap": 2839,
      "enangan": 2840,
      "egang": 2841,
      "Ġberlangsung": 2842,
      "ĠGro": 2843,
      "Ġdisutradarai": 2844,
      "umb": 2845,
      "edung": 2846,
      "Ġsta": 2847,
      "Ġdiadakan": 2848,
      "Ġbersi": 2849,
      "Ġmemut": 2850,
      "Ġtujuan": 2851,
      "Ġserangan": 2852,
      "ĠSelama": 2853,
      "//": 2854,
      "Ġdija": 2855,
      "yata": 2856,
      "Ġdaya": 2857,
      "Ġpec": 2858,
      "ĠTenggara": 2859,
      "Ġdemikian": 2860,
      "ĠNa": 2861,
      "vi": 2862,
      "Ġterj": 2863,
      "ĠSementara": 2864,
      "Ġlam": 2865,
      "umat": 2866,
      "ove": 2867,
      "Ġfrom": 2868,
      "Ġkekuatan": 2869,
      "alon": 2870,
      "An": 2871,
      "Ġkekuasa": 2872,
      "astra": 2873,
      "ĠSejak": 2874,
      "Ġmedia": 2875,
      "ĠMaj": 2876,
      "Ġda": 2877,
      "Ġpenj": 2878,
      "andi": 2879,
      "ider": 2880,
      "60": 2881,
      "iptakan": 2882,
      "40": 2883,
      "Ġberkembang": 2884,
      "ĠJenderal": 2885,
      "://": 2886,
      "Ġingin": 2887,
      "eld": 2888,
      "Ġpertamanya": 2889,
      "Ġdimana": 2890,
      "ps": 2891,
      "ĠFor": 2892,
      "Ġkasus": 2893,
      "Ġepisode": 2894,
      "emat": 2895,
      "Ġy": 2896,
      "acara": 2897,
      "ĠPlanet": 2898,
      "Ġbeb": 2899,
      "ĠPo": 2900,
      "ĠTrans": 2901,
      "Ġpemba": 2902,
      "Ġjabatan": 2903,
      "Ã¶": 2904,
      "site": 2905,
      "eluruhan": 2906,
      "amu": 2907,
      "Ġwith": 2908,
      "Ġmeter": 2909,
      "istilah": 2910,
      "beda": 2911,
      "ultas": 2912,
      "egori": 2913,
      "ĠIst": 2914,
      "ampuan": 2915,
      "etik": 2916,
      "ĠPemerintah": 2917,
      "Ġpenggunaan": 2918,
      "Ġapa": 2919,
      "ergi": 2920,
      "aksa": 2921,
      "uruan": 2922,
      "enti": 2923,
      "Ġsal": 2924,
      "emu": 2925,
      "Ġinformasi": 2926,
      "ĠRakyat": 2927,
      "Ġkeber": 2928,
      "Ġmodel": 2929,
      "Ġdiberi": 2930,
      "iro": 2931,
      "ade": 2932,
      "fikasi": 2933,
      "ĠSar": 2934,
      "ĠYou": 2935,
      "amanan": 2936,
      "ukti": 2937,
      "omba": 2938,
      "ĠTra": 2939,
      "ĠRev": 2940,
      "ĠFo": 2941,
      "ph": 2942,
      "ĠTok": 2943,
      "Ġmendirikan": 2944,
      "kannya": 2945,
      "irip": 2946,
      "ĠDo": 2947,
      "adilan": 2948,
      "alap": 2949,
      "Ġtampil": 2950,
      "alahkan": 2951,
      "abang": 2952,
      "ĠEm": 2953,
      "ke": 2954,
      "Ġmagn": 2955,
      "Ġlokal": 2956,
      "Ġna": 2957,
      "ĠMesi": 2958,
      "Ġhi": 2959,
      "ĠPur": 2960,
      "ĠSultan": 2961,
      "Ġberisi": 2962,
      "emi": 2963,
      "Ġkeras": 2964,
      "Ġvan": 2965,
      "ĠSuk": 2966,
      "Ġselalu": 2967,
      "Ġmengaj": 2968,
      "Ġcepat": 2969,
      "ford": 2970,
      "oks": 2971,
      "Ġdebut": 2972,
      "ĠLin": 2973,
      "edral": 2974,
      "ĠPangeran": 2975,
      "Ġmendukung": 2976,
      "Ġ1997": 2977,
      "gaimana": 2978,
      "Ġberikutnya": 2979,
      "Ġberakhir": 2980,
      "Ġfisi": 2981,
      "Ġkeseluruhan": 2982,
      "amaan": 2983,
      "istan": 2984,
      "ahli": 2985,
      "Ġpembangunan": 2986,
      "stitu": 2987,
      "ales": 2988,
      "iade": 2989,
      "ĠVol": 2990,
      "askah": 2991,
      "Ġmut": 2992,
      "Ġistilah": 2993,
      "ĠLet": 2994,
      "Ġkuat": 2995,
      "asiswa": 2996,
      "anjutkan": 2997,
      "ular": 2998,
      "Ġkur": 2999,
      "ĠLab": 3000,
      "Ġmul": 3001,
      "ĠUmum": 3002,
      "itt": 3003,
      "mar": 3004,
      "utusan": 3005,
      "Ġnon": 3006,
      "intangi": 3007,
      "Ġsurat": 3008,
      "ĠHol": 3009,
      "ahaya": 3010,
      "ĠPak": 3011,
      "Ġdita": 3012,
      "rag": 3013,
      "card": 3014,
      "Ġlog": 3015,
      "ĠRomawi": 3016,
      "ĠIm": 3017,
      "Ġenam": 3018,
      "orong": 3019,
      "elahiran": 3020,
      "ĠSebelum": 3021,
      "atangan": 3022,
      "impiade": 3023,
      "Ġtambahan": 3024,
      "aturan": 3025,
      "ovel": 3026,
      "Ġmemilih": 3027,
      "uel": 3028,
      "ĠPark": 3029,
      "Ġpad": 3030,
      "its": 3031,
      "kait": 3032,
      "tivitas": 3033,
      "Ġkematian": 3034,
      "unggal": 3035,
      "dian": 3036,
      "Ġadministr": 3037,
      "ĠSat": 3038,
      "ĠYahudi": 3039,
      "lukan": 3040,
      "Ġpenerbangan": 3041,
      "ĠBu": 3042,
      "Ġstr": 3043,
      "tih": 3044,
      "ĠInf": 3045,
      "Ġmur": 3046,
      "eth": 3047,
      "ĠTo": 3048,
      "igh": 3049,
      "ĠGrup": 3050,
      "emui": 3051,
      "ĠKemen": 3052,
      "ĠSim": 3053,
      "ume": 3054,
      "Ġed": 3055,
      "sir": 3056,
      "lawan": 3057,
      "ĠInstit": 3058,
      "Ġtradisional": 3059,
      "Ġpribadi": 3060,
      "ĠMor": 3061,
      "tin": 3062,
      "Ġ188": 3063,
      "ubung": 3064,
      "Ġmeninggalkan": 3065,
      "iaya": 3066,
      "ĠTidak": 3067,
      "Ġhutan": 3068,
      "ĠOff": 3069,
      "uga": 3070,
      "ĠKen": 3071,
      "ĠBagian": 3072,
      "ãģ": 3073,
      "pr": 3074,
      "Ġsemakin": 3075,
      "ĠHan": 3076,
      "ĠMesir": 3077,
      "ese": 3078,
      "Ġkita": 3079,
      "upiter": 3080,
      "Ġnomor": 3081,
      "fi": 3082,
      "ijakan": 3083,
      "ĠKons": 3084,
      "Ġpat": 3085,
      "bon": 3086,
      "Ġmenyer": 3087,
      "esus": 3088,
      "Ġpemilihan": 3089,
      "ĠBro": 3090,
      "tris": 3091,
      "Ġtua": 3092,
      "div": 3093,
      "ingkatan": 3094,
      "ĠAwards": 3095,
      "ĠGrand": 3096,
      "Ġaj": 3097,
      "ĠMis": 3098,
      "ĠGal": 3099,
      "ĠHin": 3100,
      "epatan": 3101,
      "ĠÐ": 3102,
      "yakarta": 3103,
      "ĠWin": 3104,
      "Ġmemutuskan": 3105,
      "Ġputih": 3106,
      "ĠMod": 3107,
      "ribusi": 3108,
      "Ġberper": 3109,
      "kitab": 3110,
      "ogyakarta": 3111,
      "Ġhtt": 3112,
      "ace": 3113,
      "ser": 3114,
      "78": 3115,
      "sanakan": 3116,
      "Ġtentara": 3117,
      "Ġuang": 3118,
      "ĠSed": 3119,
      "ings": 3120,
      "ush": 3121,
      "iau": 3122,
      "elengg": 3123,
      "Ġprim": 3124,
      "Ġfinal": 3125,
      "estasi": 3126,
      "Ġder": 3127,
      "ĠGar": 3128,
      "Ġ1996": 3129,
      "ĠFilip": 3130,
      "Ġperjalanan": 3131,
      "Ġid": 3132,
      "Ġikan": 3133,
      "ograp": 3134,
      "anjar": 3135,
      "ĠPerdana": 3136,
      "Ġwarna": 3137,
      "warna": 3138,
      "Ġterbaik": 3139,
      "ram": 3140,
      "ĠPerj": 3141,
      "kota": 3142,
      "imia": 3143,
      "Ġ1995": 3144,
      "Ġberbahasa": 3145,
      "ĠIlmu": 3146,
      "etapkan": 3147,
      "kar": 3148,
      "ransp": 3149,
      "Ġstruktur": 3150,
      "au": 3151,
      "Ġaktif": 3152,
      "luk": 3153,
      "Ġdiproduksi": 3154,
      "ĠTinggi": 3155,
      "esaikan": 3156,
      "Ġform": 3157,
      "ĠDar": 3158,
      "ĠParis": 3159,
      "Ġmon": 3160,
      "usa": 3161,
      "Ġbabak": 3162,
      "Ġgaya": 3163,
      "ĠUnion": 3164,
      "ĠMusim": 3165,
      "ĠCl": 3166,
      "own": 3167,
      "ĠFI": 3168,
      "ĠSumber": 3169,
      "Ġint": 3170,
      "erik": 3171,
      "ĠBank": 3172,
      "line": 3173,
      "ĠSebuah": 3174,
      "Ġfungsi": 3175,
      "Ġtepat": 3176,
      "negara": 3177,
      "Ġsekali": 3178,
      "ĠPela": 3179,
      "ĠMel": 3180,
      "elola": 3181,
      "Ġulang": 3182,
      "Ġorg": 3183,
      "BC": 3184,
      "ure": 3185,
      "ĠJalur": 3186,
      "ĠEks": 3187,
      "Ġefek": 3188,
      "alu": 3189,
      "zi": 3190,
      "Ġterkait": 3191,
      "iring": 3192,
      "ambah": 3193,
      "Ġ50": 3194,
      "Ġalat": 3195,
      "Ġmembangun": 3196,
      "entri": 3197,
      "Ġbelajar": 3198,
      "ĠMeng": 3199,
      "ras": 3200,
      "ãĤ": 3201,
      "fn": 3202,
      "ĠAz": 3203,
      "Ġpublik": 3204,
      "AT": 3205,
      "ĠDavid": 3206,
      "engahan": 3207,
      "my": 3208,
      "ĠUS": 3209,
      "anian": 3210,
      "Ġkekuasaan": 3211,
      "Ġlistrik": 3212,
      "Ġlayanan": 3213,
      "umur": 3214,
      "bel": 3215,
      "ĠÂ": 3216,
      "ĠTai": 3217,
      "alitas": 3218,
      "ĠMi": 3219,
      "oman": 3220,
      "ĠEur": 3221,
      "ĠNe": 3222,
      "baya": 3223,
      "Ġinf": 3224,
      "andingkan": 3225,
      "Ġdipimpin": 3226,
      "asikan": 3227,
      "ĠHen": 3228,
      "ĠTro": 3229,
      "vcard": 3230,
      "ĠSuper": 3231,
      "odi": 3232,
      "ĠBal": 3233,
      "bor": 3234,
      "Ġ1980": 3235,
      "que": 3236,
      "Ġterpilih": 3237,
      "ĠDay": 3238,
      "icial": 3239,
      "ĠSub": 3240,
      "ĠYogyakarta": 3241,
      "Ġbant": 3242,
      "Ġgol": 3243,
      "Ġmemberi": 3244,
      "Ġarah": 3245,
      "tronom": 3246,
      "Ġtertinggi": 3247,
      "sus": 3248,
      "ektor": 3249,
      "asia": 3250,
      "dan": 3251,
      "asilitas": 3252,
      "Ġpartai": 3253,
      "ĠSecara": 3254,
      "nam": 3255,
      "ĠDat": 3256,
      "wakilan": 3257,
      "ĠNational": 3258,
      "ĠLu": 3259,
      "Ġteknologi": 3260,
      "abel": 3261,
      "akup": 3262,
      "ando": 3263,
      "ĠEng": 3264,
      "Ġvokal": 3265,
      "Ġmalam": 3266,
      "Ġsuk": 3267,
      "unda": 3268,
      "ĠPolitik": 3269,
      "Ġpopuler": 3270,
      "sekarang": 3271,
      "yangkan": 3272,
      "trik": 3273,
      "ty": 3274,
      "elapan": 3275,
      "ĠOlimpiade": 3276,
      "ĠAbdul": 3277,
      "Ġinter": 3278,
      "asta": 3279,
      "ujukan": 3280,
      "anga": 3281,
      "efin": 3282,
      "Ġlokasi": 3283,
      "ikel": 3284,
      "ester": 3285,
      "Ġpopulasi": 3286,
      "dagangan": 3287,
      "ĠRobert": 3288,
      "Ġkondisi": 3289,
      "Ġahli": 3290,
      "Ġpasar": 3291,
      "ĠBupati": 3292,
      "ĠBl": 3293,
      "Ġbisnis": 3294,
      "Ġmerah": 3295,
      "ĠJames": 3296,
      "Ġelektr": 3297,
      "Ġunit": 3298,
      "Ġtitik": 3299,
      "ungkinkan": 3300,
      "Ġperingkat": 3301,
      "ĠZh": 3302,
      "Ġberat": 3303,
      "ĠJaya": 3304,
      "amai": 3305,
      "Ġpergi": 3306,
      "Ġpantai": 3307,
      "Ġtotal": 3308,
      "ĠBali": 3309,
      "Ġpenyakit": 3310,
      "Ġmengumumkan": 3311,
      "andan": 3312,
      "Ġdibentuk": 3313,
      "els": 3314,
      "oma": 3315,
      "ĠKanada": 3316,
      "Ġberg": 3317,
      "ĠRec": 3318,
      "Ġnovel": 3319,
      "Ġoperasi": 3320,
      "70": 3321,
      "Ġkemampuan": 3322,
      "ru": 3323,
      "Ġmeningkatkan": 3324,
      "Ġgaris": 3325,
      "uncak": 3326,
      "oth": 3327,
      "ĠFakultas": 3328,
      "ĠMed": 3329,
      "dung": 3330,
      "ker": 3331,
      "Ġpar": 3332,
      "ĠKelahiran": 3333,
      "itra": 3334,
      "burg": 3335,
      "ee": 3336,
      "erasi": 3337,
      "Ġmemperoleh": 3338,
      "stitusi": 3339,
      "Ġdisi": 3340,
      "ĠCharl": 3341,
      "ĠSingap": 3342,
      "ĠGubernur": 3343,
      "ania": 3344,
      "Ġkabupaten": 3345,
      "ĠKarya": 3346,
      "Ġtugas": 3347,
      "ĠBla": 3348,
      "Ġdar": 3349,
      "Ġberwarna": 3350,
      "ukul": 3351,
      "Ġsakit": 3352,
      "Ġ$": 3353,
      "ĠKedua": 3354,
      "alaupun": 3355,
      "ĠHari": 3356,
      "ĠMark": 3357,
      "eluarkan": 3358,
      "dip": 3359,
      "jaya": 3360,
      "ĠDusun": 3361,
      "ĠKur": 3362,
      "uncurkan": 3363,
      "ĠKeju": 3364,
      "ye": 3365,
      "Ġhewan": 3366,
      "Ġmenggantikan": 3367,
      "Per": 3368,
      "ĠTom": 3369,
      "ega": 3370,
      "Ġkamp": 3371,
      "rib": 3372,
      "oa": 3373,
      "ĠPener": 3374,
      "Ġpindah": 3375,
      "itur": 3376,
      "air": 3377,
      "uruf": 3378,
      "Ġkini": 3379,
      "oin": 3380,
      "ĠKam": 3381,
      "adar": 3382,
      "ĠMem": 3383,
      "Ġ1994": 3384,
      "ĠKeuskupan": 3385,
      "Ġketer": 3386,
      "35": 3387,
      "INE": 3388,
      "ĠSalah": 3389,
      "abat": 3390,
      "umbuh": 3391,
      "Ġrep": 3392,
      "umpang": 3393,
      "ĠLee": 3394,
      "Ġpanas": 3395,
      "ĠAlex": 3396,
      "ĠMusic": 3397,
      "Ġpenelitian": 3398,
      "Ġkonf": 3399,
      "Ġjatuh": 3400,
      "ĠKehidupan": 3401,
      "Ġmencakup": 3402,
      "uma": 3403,
      "ungkinan": 3404,
      "undang": 3405,
      "bil": 3406,
      "sal": 3407,
      "hael": 3408,
      "Ġdew": 3409,
      "Ġsy": 3410,
      "orge": 3411,
      "hana": 3412,
      "Ġpenuh": 3413,
      "Ġjarak": 3414,
      "Â²": 3415,
      "ugh": 3416,
      "sitas": 3417,
      "ĠBudd": 3418,
      "ifat": 3419,
      "ĠUtama": 3420,
      "AM": 3421,
      "ĠAll": 3422,
      "tasi": 3423,
      "ille": 3424,
      "orro": 3425,
      "Ġ1992": 3426,
      "ĠOb": 3427,
      "Ġfak": 3428,
      "Ġpengg": 3429,
      "enaga": 3430,
      "Ġhid": 3431,
      "likasi": 3432,
      "Ġmencari": 3433,
      "ceae": 3434,
      "ĠPaul": 3435,
      "ajalah": 3436,
      "Ġkla": 3437,
      "ĠMiss": 3438,
      "ĠBandar": 3439,
      "Ġsis": 3440,
      "rata": 3441,
      "ĠAst": 3442,
      "lus": 3443,
      "ĠFestival": 3444,
      "ero": 3445,
      "lobal": 3446,
      "osis": 3447,
      "empur": 3448,
      "Ġpria": 3449,
      "ott": 3450,
      "ĠMag": 3451,
      "Ġrakyat": 3452,
      "sch": 3453,
      "seorang": 3454,
      "Ġberd": 3455,
      "Ġsempat": 3456,
      "ington": 3457,
      "ĠKekaisaran": 3458,
      "Ġbertemu": 3459,
      "iling": 3460,
      "Ġbak": 3461,
      "udukan": 3462,
      "ĠAli": 3463,
      "ĠPembentukan": 3464,
      "ediakan": 3465,
      "ĠStar": 3466,
      "Ġsaudara": 3467,
      "Ġ1993": 3468,
      "che": 3469,
      "egal": 3470,
      "Ġberf": 3471,
      "Ġri": 3472,
      "ĠPel": 3473,
      "airan": 3474,
      "ĠEr": 3475,
      "Ġmati": 3476,
      "Ġpresiden": 3477,
      "dalam": 3478,
      "ĠKaisar": 3479,
      "Ġmemungkinkan": 3480,
      "Ġmenjalan": 3481,
      "itasi": 3482,
      "batas": 3483,
      "Ġkelurahan": 3484,
      "ĠHukum": 3485,
      "sial": 3486,
      "ĠAlkitab": 3487,
      "ĠLINE": 3488,
      "Ġ40": 3489,
      "ander": 3490,
      "egitu": 3491,
      "ĠUr": 3492,
      "ĠRI": 3493,
      "ĠSura": 3494,
      "ĠAgr": 3495,
      "ĠTaman": 3496,
      "erdeka": 3497,
      "ĠFilipina": 3498,
      "ĠWe": 3499,
      "enalkan": 3500,
      "Ġmenarik": 3501,
      "Ġtangga": 3502,
      "ĠBac": 3503,
      "andangan": 3504,
      "Ġwisata": 3505,
      "Ġsenjata": 3506,
      "berg": 3507,
      "ĠVal": 3508,
      "ifera": 3509,
      "otel": 3510,
      "80": 3511,
      "Ġprofesi": 3512,
      "uhi": 3513,
      "Ġpendiri": 3514,
      "ĠUk": 3515,
      "Ġproyek": 3516,
      "ĠBanjar": 3517,
      "ĠSang": 3518,
      "ĠSocorro": 3519,
      "zh": 3520,
      "oo": 3521,
      "Ġayahnya": 3522,
      "Ġgerakan": 3523,
      "ĠOrganisasi": 3524,
      "inj": 3525,
      "ĠDua": 3526,
      "Ġgel": 3527,
      "alian": 3528,
      "Ġditemui": 3529,
      "ĠPapua": 3530,
      "antik": 3531,
      "Ġdistrik": 3532,
      "ĠLINEAR": 3533,
      "ĠGa": 3534,
      "Ġperistiwa": 3535,
      "indakan": 3536,
      "Ġsar": 3537,
      "ĠUp": 3538,
      "Ġmemperk": 3539,
      "Ġcontoh": 3540,
      "ĠMana": 3541,
      "Ġperkembangan": 3542,
      "tis": 3543,
      "rus": 3544,
      "orium": 3545,
      "enarnya": 3546,
      "ulat": 3547,
      "Ġmutlak": 3548,
      "Ġge": 3549,
      "aligus": 3550,
      "ipe": 3551,
      "Ġpengembangan": 3552,
      "Ġ31": 3553,
      "itudo": 3554,
      "ene": 3555,
      "acam": 3556,
      "ĠKejuaraan": 3557,
      "Ġduk": 3558,
      "ĠSchool": 3559,
      "Ġ1991": 3560,
      "tes": 3561,
      "Ġmerilis": 3562,
      "Ġch": 3563,
      "amah": 3564,
      "ĠAran": 3565,
      "Ġmudah": 3566,
      "2009": 3567,
      "jau": 3568,
      "Ġhitam": 3569,
      "ise": 3570,
      "ĠRich": 3571,
      "mo": 3572,
      "epas": 3573,
      "hail": 3574,
      "ĠMur": 3575,
      "ĠComm": 3576,
      "iru": 3577,
      "oran": 3578,
      "sel": 3579,
      "Ġam": 3580,
      "iksi": 3581,
      "bahasa": 3582,
      "2014": 3583,
      "terian": 3584,
      "hanc": 3585,
      "Ġkesehatan": 3586,
      "Ġusaha": 3587,
      "hoa": 3588,
      "esai": 3589,
      "satunya": 3590,
      "Ġrasa": 3591,
      "agam": 3592,
      "gerak": 3593,
      "Ġikut": 3594,
      "Ġspons": 3595,
      "Ġbarang": 3596,
      "arg": 3597,
      "pe": 3598,
      "Ġberdiri": 3599,
      "Ġpemeran": 3600,
      "ĠMul": 3601,
      "Ġkuno": 3602,
      "unjukan": 3603,
      "Ġpot": 3604,
      "Ġmeminta": 3605,
      "ĠEnter": 3606,
      "Ġsekaligus": 3607,
      "Ġrata": 3608,
      "elaskan": 3609,
      "Ġjawab": 3610,
      "Ġmerek": 3611,
      "Ġkeduanya": 3612,
      "erit": 3613,
      "ĠPolandia": 3614,
      "Ġanti": 3615,
      "Ġolahraga": 3616,
      "ĠDistrik": 3617,
      "egis": 3618,
      "stem": 3619,
      "Ġperangkat": 3620,
      "Ġtr": 3621,
      "anti": 3622,
      "ower": 3623,
      "ĠSm": 3624,
      "Ġsana": 3625,
      "Ġinv": 3626,
      "ĠBadan": 3627,
      "ĠRumah": 3628,
      "okrat": 3629,
      "ĠSab": 3630,
      "ĠMinor": 3631,
      "iki": 3632,
      "2019": 3633,
      "Ar": 3634,
      "ĠMuslim": 3635,
      "ustaka": 3636,
      "uci": 3637,
      "ashi": 3638,
      "esis": 3639,
      "Ġmenjadikan": 3640,
      "Ġdiangkat": 3641,
      "Ġterlihat": 3642,
      "ĠCinta": 3643,
      "rich": 3644,
      "ope": 3645,
      "eni": 3646,
      "ipta": 3647,
      "ome": 3648,
      "ĠMaria": 3649,
      "Ġperh": 3650,
      "onghoa": 3651,
      "ĠKi": 3652,
      "elis": 3653,
      "antara": 3654,
      "ĠPertama": 3655,
      "ikahan": 3656,
      "Ġmenolak": 3657,
      "luas": 3658,
      "hal": 3659,
      "Ġkemenangan": 3660,
      "Ġta": 3661,
      "Ġbek": 3662,
      "ĠSatu": 3663,
      "\")": 3664,
      "Ġutamanya": 3665,
      "Ġprodus": 3666,
      "ĠTurki": 3667,
      "endaraan": 3668,
      "Ġbantuan": 3669,
      "ĠLove": 3670,
      "divid": 3671,
      "ĠColl": 3672,
      "ĠHak": 3673,
      "ĠAstronom": 3674,
      "Ġseseorang": 3675,
      "egun": 3676,
      "engaruhi": 3677,
      "Ġmengembangkan": 3678,
      "dow": 3679,
      "ito": 3680,
      "ĠBumi": 3681,
      "libat": 3682,
      "Ġjuara": 3683,
      "ĠMasa": 3684,
      "ĠCent": 3685,
      "Ġialah": 3686,
      "enteng": 3687,
      "ĠYesus": 3688,
      "iae": 3689,
      "ĠLo": 3690,
      "yam": 3691,
      "Ġoksi": 3692,
      "ĠUnited": 3693,
      "ĠBant": 3694,
      "pro": 3695,
      "jemen": 3696,
      "KI": 3697,
      "bar": 3698,
      "Ġmagnitudo": 3699,
      "ĠMac": 3700,
      "Ġala": 3701,
      "Ġberusia": 3702,
      "ĠSri": 3703,
      "sana": 3704,
      "Ġpertanian": 3705,
      "ĠSil": 3706,
      "ĠSurabaya": 3707,
      "Ġdipakai": 3708,
      "2012": 3709,
      "Ġop": 3710,
      "Ġkimia": 3711,
      "gala": 3712,
      "2008": 3713,
      "Ġantaranya": 3714,
      "Ġmengubah": 3715,
      "tihan": 3716,
      "Ġref": 3717,
      "Ġpecahan": 3718,
      "etahuan": 3719,
      "\"|": 3720,
      "Ġorgan": 3721,
      "iner": 3722,
      "ling": 3723,
      "ĠEv": 3724,
      "ĠSMP": 3725,
      "erdekaan": 3726,
      "ĠFC": 3727,
      "Ġkeadaan": 3728,
      "ransport": 3729,
      "Ġmengalahkan": 3730,
      "Ġtanaman": 3731,
      "BS": 3732,
      "ics": 3733,
      "Ġberbasis": 3734,
      "Ġ1970": 3735,
      "Ġlemb": 3736,
      "Ġ2023": 3737,
      "urnamen": 3738,
      "tahan": 3739,
      "Ġrela": 3740,
      "ĠPerjanjian": 3741,
      "ild": 3742,
      "akili": 3743,
      "ĠStat": 3744,
      "we": 3745,
      "ster": 3746,
      "akui": 3747,
      "eral": 3748,
      "Ġkategori": 3749,
      "Ġteori": 3750,
      "str": 3751,
      "ink": 3752,
      "jur": 3753,
      "ambang": 3754,
      "udayaan": 3755,
      "ĠKematian": 3756,
      "ĠWh": 3757,
      "45": 3758,
      "Ġgambar": 3759,
      "ĠMari": 3760,
      "2005": 3761,
      "ĠPorifera": 3762,
      "ĠKementerian": 3763,
      "Ġtulis": 3764,
      "icara": 3765,
      "efektur": 3766,
      "Ġaktor": 3767,
      "Ġteman": 3768,
      "Ġmenya": 3769,
      "Ġbebas": 3770,
      "dial": 3771,
      "omas": 3772,
      "ĠUs": 3773,
      "ĠHong": 3774,
      "irakan": 3775,
      "over": 3776,
      "fik": 3777,
      "ĠLatin": 3778,
      "Ġenergi": 3779,
      "Ġbelas": 3780,
      "round": 3781,
      "ĠSistem": 3782,
      "uhnya": 3783,
      "ĠTionghoa": 3784,
      "ĠHasil": 3785,
      "ĠKab": 3786,
      "itung": 3787,
      "ĠCap": 3788,
      "36": 3789,
      "Ġkemungkinan": 3790,
      "ations": 3791,
      "2004": 3792,
      "2006": 3793,
      "Ġpra": 3794,
      "Ġperdana": 3795,
      "ĠHam": 3796,
      "dari": 3797,
      "2013": 3798,
      "ES": 3799,
      "Ã¨": 3800,
      "jana": 3801,
      "Ġkeempat": 3802,
      "cal": 3803,
      "opi": 3804,
      "Ġterlibat": 3805,
      "onik": 3806,
      "elam": 3807,
      "leks": 3808,
      "Ġmewakili": 3809,
      "Ġkaum": 3810,
      "onton": 3811,
      "ĠAnak": 3812,
      "ĠBos": 3813,
      "ambahkan": 3814,
      "Ġistri": 3815,
      "ĠKelurahan": 3816,
      "90": 3817,
      "entrisitas": 3818,
      "ĠAstronomical": 3819,
      "guruan": 3820,
      "Ġ!": 3821,
      "2015": 3822,
      "Ġlar": 3823,
      "Ġdiambil": 3824,
      "2007": 3825,
      "ĠPortug": 3826,
      "PS": 3827,
      "ato": 3828,
      "ĠSir": 3829,
      "ĠSuku": 3830,
      "ĠJika": 3831,
      "Ġradio": 3832,
      "intu": 3833,
      "amar": 3834,
      "ept": 3835,
      "Ġmelanjutkan": 3836,
      "Ġmetode": 3837,
      "Ġbenar": 3838,
      "ollo": 3839,
      "buhan": 3840,
      "unisi": 3841,
      "Ġmemimpin": 3842,
      "Ġha": 3843,
      "Ġpertempuran": 3844,
      "okus": 3845,
      "ĠGeorge": 3846,
      "Ġkulit": 3847,
      "Ġmirip": 3848,
      "Ġuj": 3849,
      "lalu": 3850,
      "Ġdag": 3851,
      "ĠMichael": 3852,
      "film": 3853,
      "alih": 3854,
      "ĠBest": 3855,
      "back": 3856,
      "Ġbalapan": 3857,
      "ukit": 3858,
      "Ġmutlaknya": 3859,
      "tahankan": 3860,
      "ĠBangsa": 3861,
      "ĠEksentrisitas": 3862,
      "ĠHy": 3863,
      "ĠPutri": 3864,
      "gn": 3865,
      "ĠForm": 3866,
      "ĠSingapura": 3867,
      "Ġselanjutnya": 3868,
      "ilus": 3869,
      "Ġterd": 3870,
      "Ġsebenarnya": 3871,
      "mark": 3872,
      "uddin": 3873,
      "Ġberjalan": 3874,
      "Ġkhas": 3875,
      "Ġbel": 3876,
      "Ġberbentuk": 3877,
      "Ġdibintangi": 3878,
      "ademi": 3879,
      "ĠFilmografi": 3880,
      "ophy": 3881,
      "ĠGir": 3882,
      "ĠGol": 3883,
      "tifikasi": 3884,
      "ĠNat": 3885,
      "aliforn": 3886,
      "ĠLap": 3887,
      "sion": 3888,
      "arlemen": 3889,
      "Ġpasangan": 3890,
      "erus": 3891,
      "osiasi": 3892,
      "ĠDev": 3893,
      "ĠTanjung": 3894,
      "ĠBay": 3895,
      "Ġtunggal": 3896,
      "75": 3897,
      "Ġsh": 3898,
      "ĠAustria": 3899,
      "batkan": 3900,
      "ĠUE": 3901,
      "ĠAri": 3902,
      "Ġguru": 3903,
      "ĠDivisi": 3904,
      "unty": 3905,
      "andai": 3906,
      "utuhkan": 3907,
      "Ġkak": 3908,
      "Ġmenyelesaikan": 3909,
      "ospong": 3910,
      "angkaian": 3911,
      "atural": 3912,
      "Ġkebijakan": 3913,
      "Ġstatus": 3914,
      "ĠBrasil": 3915,
      "irus": 3916,
      "ĠPhilip": 3917,
      "Ġ(\"": 3918,
      "ĠRi": 3919,
      "Ġmed": 3920,
      "ĠPadang": 3921,
      "ĠPop": 3922,
      "Ġfr": 3923,
      "ĠPubl": 3924,
      "ĠTokyo": 3925,
      "Ġmencoba": 3926,
      "Ġwebsite": 3927,
      "Ġvol": 3928,
      "erahkan": 3929,
      "Ġperlu": 3930,
      "abrik": 3931,
      "Ġpertengahan": 3932,
      "porkan": 3933,
      "ĠFIFA": 3934,
      "Ġ1989": 3935,
      "Ġmenemp": 3936,
      "Ġâ": 3937,
      "ĠMelayu": 3938,
      "ĠKeluar": 3939,
      "Ġdek": 3940,
      "ĠTor": 3941,
      "ER": 3942,
      "ĠQu": 3943,
      "ze": 3944,
      "ental": 3945,
      "sedia": 3946,
      "Ã¤": 3947,
      "Ġ1960": 3948,
      "alifornia": 3949,
      "Ġmengirim": 3950,
      "utu": 3951,
      "Ġpengguna": 3952,
      "ĠCharles": 3953,
      "ike": 3954,
      "ĠUl": 3955,
      "stan": 3956,
      "Ġlembaga": 3957,
      "Ġtampak": 3958,
      "Ġbadan": 3959,
      "Ġditayangkan": 3960,
      "bia": 3961,
      "Ġdikembangkan": 3962,
      "ĠFer": 3963,
      "ologis": 3964,
      "Ġkantor": 3965,
      "efinisi": 3966,
      "Ġmemerint": 3967,
      "umni": 3968,
      "edali": 3969,
      "ujan": 3970,
      "Ġbegitu": 3971,
      "ĠTet": 3972,
      "Ġsifat": 3973,
      "Ġkompetisi": 3974,
      "ipil": 3975,
      "alang": 3976,
      "ĠIbu": 3977,
      "Ġpohon": 3978,
      "aha": 3979,
      "ake": 3980,
      "ĠDel": 3981,
      "Ġkomputer": 3982,
      "Ð°": 3983,
      "Ġbus": 3984,
      "ĠApollo": 3985,
      "Ġobjek": 3986,
      "Ġdila": 3987,
      "ism": 3988,
      "33": 3989,
      "ĠNomor": 3990,
      "ĠGroup": 3991,
      "empatkan": 3992,
      "Ġkeper": 3993,
      "iden": 3994,
      "ys": 3995,
      "Ġprofesional": 3996,
      "Ġupaya": 3997,
      "atorium": 3998,
      "ĠDinasti": 3999,
      "tainment": 4000,
      "egunungan": 4001,
      "Ġmenengah": 4002,
      "ĠEkonomi": 4003,
      "ĠPertempuran": 4004,
      "Ġ186": 4005,
      "ĠAv": 4006,
      "Ġdewasa": 4007,
      "ĠWeb": 4008,
      "ĠMasjid": 4009,
      "ĠInter": 4010,
      "oki": 4011,
      "Ġmenciptakan": 4012,
      "akaian": 4013,
      "Ġperp": 4014,
      "ĠCir": 4015,
      "ĠChamp": 4016,
      "Ġmelibat": 4017,
      "mon": 4018,
      "Ġnamanya": 4019,
      "Ġgagal": 4020,
      "Ġpekerjaan": 4021,
      "lind": 4022,
      "Ġsingel": 4023,
      "bedaan": 4024,
      "oi": 4025,
      "ordial": 4026,
      "2017": 4027,
      "Ġberusaha": 4028,
      "text": 4029,
      "Ġ(;": 4030,
      "Ġmay": 4031,
      "Ġtiba": 4032,
      "osh": 4033,
      "truksi": 4034,
      "Ġmelibatkan": 4035,
      "Ġkonsep": 4036,
      "Ġperdagangan": 4037,
      "Ġsegera": 4038,
      "Ġedisi": 4039,
      "esh": 4040,
      "arisan": 4041,
      "Ġmenghadap": 4042,
      "Ġprimordial": 4043,
      "Ġac": 4044,
      "Ġuni": 4045,
      "Ġdibandingkan": 4046,
      "are": 4047,
      "ridge": 4048,
      "apun": 4049,
      "ĠAss": 4050,
      "ĠLaw": 4051,
      "Ġmengandung": 4052,
      "Ġumat": 4053,
      "enj": 4054,
      "ĠCalifornia": 4055,
      "uss": 4056,
      "Ġunsur": 4057,
      "ein": 4058,
      "Ġemas": 4059,
      "Ġmenyerang": 4060,
      "ĠDarat": 4061,
      "trol": 4062,
      "Ġ1988": 4063,
      "angsaan": 4064,
      "Ġberperan": 4065,
      "ĠBang": 4066,
      "irkan": 4067,
      "2016": 4068,
      "Ġantar": 4069,
      "erv": 4070,
      "ĠSol": 4071,
      "ultur": 4072,
      "Ġdr": 4073,
      "Ġpelak": 4074,
      "ĠRad": 4075,
      "ano": 4076,
      "Ġkepem": 4077,
      "ĠPemerintahan": 4078,
      "hailand": 4079,
      "ology": 4080,
      "Ġberla": 4081,
      "Al": 4082,
      "Ġterbang": 4083,
      "Ġselesai": 4084,
      "ĠRed": 4085,
      "ĠTuhan": 4086,
      "uhu": 4087,
      "Ġdes": 4088,
      "ray": 4089,
      "itis": 4090,
      "Ġhttp": 4091,
      "ition": 4092,
      "ĠPaus": 4093,
      "ĠNag": 4094,
      "Ġtersedia": 4095,
      "Ġtumbuh": 4096,
      "ĠHindia": 4097,
      "ĠBill": 4098,
      "ĠRatu": 4099,
      "ĠYupiter": 4100,
      "ĠTanah": 4101,
      "Ġgi": 4102,
      "jem": 4103,
      "ĠIV": 4104,
      "Ġmenggambarkan": 4105,
      "Ġ+": 4106,
      "ĠSl": 4107,
      "ĠSebagian": 4108,
      "ĠWest": 4109,
      "urusan": 4110,
      "ujuk": 4111,
      "ĠMes": 4112,
      "Ġmerasa": 4113,
      "retaris": 4114,
      "isimal": 4115,
      "Ġbertahan": 4116,
      "Ġplanetisimal": 4117,
      "Ġpengaruh": 4118,
      "urat": 4119,
      "MS": 4120,
      "ĠTar": 4121,
      "Ġtujuh": 4122,
      "Ġrow": 4123,
      "Ġindivid": 4124,
      "Ġmenit": 4125,
      "Ġtindakan": 4126,
      "Ġbersifat": 4127,
      "sipasi": 4128,
      "Ġhuruf": 4129,
      "ĠDemospong": 4130,
      "duc": 4131,
      "ĠDemospongiae": 4132,
      "ĠEntertainment": 4133,
      "ripsi": 4134,
      "Ch": 4135,
      "Ġdarah": 4136,
      "cer": 4137,
      "ombang": 4138,
      "ĠOlahraga": 4139,
      "inggian": 4140,
      "right": 4141,
      "ĠAwal": 4142,
      "bangkan": 4143,
      "Ġbunga": 4144,
      "hire": 4145,
      "jib": 4146,
      "ĠGor": 4147,
      "Ġrowspan": 4148,
      "sten": 4149,
      "ĠViet": 4150,
      "daf": 4151,
      "endal": 4152,
      "ĠIk": 4153,
      "ng": 4154,
      "ĠBak": 4155,
      "Ġdibuka": 4156,
      "2018": 4157,
      "Ġstandar": 4158,
      "oris": 4159,
      "Ġmembunuh": 4160,
      "Ġkomunitas": 4161,
      "Ġmisi": 4162,
      "Ġburung": 4163,
      "Ġsemb": 4164,
      "Ġterbuka": 4165,
      "Ġjelas": 4166,
      "Ġlanjut": 4167,
      "ohan": 4168,
      "Ġpeserta": 4169,
      "ĠPe": 4170,
      "99": 4171,
      "indu": 4172,
      "Ġmisalnya": 4173,
      "37": 4174,
      "Ġjudul": 4175,
      "Ġgunung": 4176,
      "yani": 4177,
      "ĠAngel": 4178,
      "ground": 4179,
      "intas": 4180,
      "Ġsw": 4181,
      "ĠHung": 4182,
      "46": 4183,
      "ĠPeter": 4184,
      "ĠVideo": 4185,
      "Ġdipilih": 4186,
      "ĠBuku": 4187,
      "ĠThailand": 4188,
      "aksud": 4189,
      "isahkan": 4190,
      "ualitas": 4191,
      "Ġagr": 4192,
      "ĠBintang": 4193,
      "jad": 4194,
      "ĠBab": 4195,
      "ĠKonf": 4196,
      "Ġpenumpang": 4197,
      "Ġfisik": 4198,
      "ĠTw": 4199,
      "aram": 4200,
      "ĠSedangkan": 4201,
      "2003": 4202,
      "Ġkomedi": 4203,
      "dik": 4204,
      "ĠBlack": 4205,
      "ĠSouth": 4206,
      "47": 4207,
      "ĠNi": 4208,
      "Ġ1945": 4209,
      "ĠLou": 4210,
      "Ġprak": 4211,
      "usak": 4212,
      "ID": 4213,
      "wood": 4214,
      "Ġadat": 4215,
      "Ġukuran": 4216,
      "Ġmaj": 4217,
      "ĠVic": 4218,
      "Ġcabang": 4219,
      "ĠTempat": 4220,
      "ejabat": 4221,
      "operasikan": 4222,
      "Ġaktris": 4223,
      "ĠPic": 4224,
      "ainkan": 4225,
      "for": 4226,
      "Ġplat": 4227,
      "ahu": 4228,
      "Ġbergerak": 4229,
      "ĠMedia": 4230,
      "elang": 4231,
      "38": 4232,
      "andatangan": 4233,
      "Ġnaskah": 4234,
      "elenggarakan": 4235,
      "ON": 4236,
      "skup": 4237,
      "ĠBanyak": 4238,
      "ĠFir": 4239,
      "ĠBol": 4240,
      "Ġspesi": 4241,
      "Ġsik": 4242,
      "ĠGi": 4243,
      "ult": 4244,
      "ĠTeknik": 4245,
      "Ø§": 4246,
      "ĠFeder": 4247,
      "Ġgas": 4248,
      "uning": 4249,
      "ĠTroya": 4250,
      "uali": 4251,
      "Ġoper": 4252,
      "TI": 4253,
      "ĠNet": 4254,
      "Ġdukungan": 4255,
      "ĠNg": 4256,
      "Ġkhususnya": 4257,
      "55": 4258,
      "ux": 4259,
      "Ð¾": 4260,
      "St": 4261,
      "ĠBerdasarkan": 4262,
      "Ġminyak": 4263,
      "Ġdimiliki": 4264,
      ");": 4265,
      "onis": 4266,
      "ekanan": 4267,
      "engkap": 4268,
      "usul": 4269,
      "ĠRichard": 4270,
      "ĠSunda": 4271,
      "omy": 4272,
      "kapai": 4273,
      "Ġselain": 4274,
      "ambut": 4275,
      "Ġdijadikan": 4276,
      "Ġbersa": 4277,
      "Ġli": 4278,
      "umpulan": 4279,
      "2000": 4280,
      "uisi": 4281,
      "Ġpenguasa": 4282,
      "ĠAcara": 4283,
      "Ġkeka": 4284,
      "eon": 4285,
      "ĠBerikut": 4286,
      "ĠAgama": 4287,
      "empatan": 4288,
      "ĠRah": 4289,
      "abatan": 4290,
      "ĠFre": 4291,
      "Ġdom": 4292,
      "ĠMusik": 4293,
      "ĠKont": 4294,
      "intah": 4295,
      "ransportasi": 4296,
      "abis": 4297,
      "ĠUEFA": 4298,
      "ĠDon": 4299,
      "bah": 4300,
      "Ġneg": 4301,
      "Ġpukul": 4302,
      "alisis": 4303,
      "Ġdibagi": 4304,
      "ĠVietnam": 4305,
      "Ġmenyediakan": 4306,
      "ĠUskup": 4307,
      "Ġmembuka": 4308,
      "ĠLan": 4309,
      "ĠBacaan": 4310,
      "Ġdah": 4311,
      "ĠChrist": 4312,
      "Ġdaun": 4313,
      "Ġ1987": 4314,
      "epak": 4315,
      "ewat": 4316,
      "Ġkalinya": 4317,
      "ĠJumlah": 4318,
      "osk": 4319,
      "Ġmar": 4320,
      "ĠJuara": 4321,
      "embatan": 4322,
      "ĠUkra": 4323,
      "Ġkorban": 4324,
      "bagian": 4325,
      "à¸": 4326,
      "Ġdiselenggarakan": 4327,
      "ution": 4328,
      "Ġsaham": 4329,
      "eet": 4330,
      "Ġpasi": 4331,
      "ĠThomas": 4332,
      "Ġmemainkan": 4333,
      "ĠKas": 4334,
      "ĠTang": 4335,
      "ĠKitab": 4336,
      "omi": 4337,
      "2020": 4338,
      "Ġkendaraan": 4339,
      "uasai": 4340,
      "Ġlahan": 4341,
      "ĠChina": 4342,
      "Ġcamp": 4343,
      "ĠEs": 4344,
      "Ġ1986": 4345,
      "PI": 4346,
      "adalah": 4347,
      "ĠJon": 4348,
      "engar": 4349,
      "ultanan": 4350,
      "versitas": 4351,
      "ĠMont": 4352,
      "akh": 4353,
      "ikiran": 4354,
      "lop": 4355,
      "Ġberoperasi": 4356,
      "Ġ1950": 4357,
      "une": 4358,
      "urangi": 4359,
      "ĠPl": 4360,
      "ĠLib": 4361,
      "Ġtanda": 4362,
      "anye": 4363,
      "ĠVen": 4364,
      "akah": 4365,
      "Ġbenda": 4366,
      "Ġtur": 4367,
      "Ġkecepatan": 4368,
      "Ġhati": 4369,
      "ĠDu": 4370,
      "zim": 4371,
      "Ġasam": 4372,
      "Ġkontrak": 4373,
      "Ġkode": 4374,
      "tions": 4375,
      "ometer": 4376,
      "39": 4377,
      "alkan": 4378,
      "Un": 4379,
      "amakan": 4380,
      "iwayat": 4381,
      "ĠRoy": 4382,
      "asinya": 4383,
      "ujud": 4384,
      "ganya": 4385,
      "Ġberbatasan": 4386,
      "Ġterlalu": 4387,
      "ĠAcadem": 4388,
      "ĠRob": 4389,
      "Ġgug": 4390,
      "ier": 4391,
      "ĠPS": 4392,
      "Ġmajalah": 4393,
      "ĠFlor": 4394,
      "Ġcatatan": 4395,
      "Ġteknik": 4396,
      "wira": 4397,
      "Ġpa": 4398,
      "ĠFri": 4399,
      "ĠFrank": 4400,
      "Ġide": 4401,
      "Ġbatas": 4402,
      "ĠTentara": 4403,
      "Ġrekaman": 4404,
      "ĠRD": 4405,
      "2001": 4406,
      "ĠCan": 4407,
      "adah": 4408,
      "onen": 4409,
      "ĠIran": 4410,
      "iew": 4411,
      "Ġes": 4412,
      "ĠPerk": 4413,
      "unak": 4414,
      "ĠSemua": 4415,
      "ebutuhan": 4416,
      "ĠStadion": 4417,
      "Ġaliran": 4418,
      "Ġnaik": 4419,
      "ĠSid": 4420,
      "ĠTop": 4421,
      "Ġrem": 4422,
      "ĠBri": 4423,
      "2002": 4424,
      "Ġsutradara": 4425,
      "hari": 4426,
      "Ġex": 4427,
      "alifikasi": 4428,
      "ters": 4429,
      "Ġped": 4430,
      "nan": 4431,
      "ĠOfficial": 4432,
      "ĠCal": 4433,
      "Ġterba": 4434,
      "Ġgedung": 4435,
      "alau": 4436,
      "ĠSeni": 4437,
      "1999": 4438,
      "Ġmemakan": 4439,
      "ĠPasi": 4440,
      "Ġbiaya": 4441,
      "ĠEmp": 4442,
      "Ġsat": 4443,
      "amin": 4444,
      "Ġpernikahan": 4445,
      "elompok": 4446,
      "Ġdigital": 4447,
      "Ġko": 4448,
      "ĠChampi": 4449,
      "ĠAlumni": 4450,
      "aly": 4451,
      "Ġ60": 4452,
      "evolusi": 4453,
      "hancurkan": 4454,
      "ĠOs": 4455,
      "Ġpemberont": 4456,
      "ĠFar": 4457,
      "alo": 4458,
      "Ġtop": 4459,
      "Ġmempertahankan": 4460,
      "cang": 4461,
      "ĠArg": 4462,
      "Ġvari": 4463,
      "Ġth": 4464,
      "Ġ1985": 4465,
      "ĠTaiwan": 4466,
      "Ġalasan": 4467,
      "ĠSong": 4468,
      "Ġpoin": 4469,
      "bau": 4470,
      "Ġera": 4471,
      "Ġketinggian": 4472,
      "ĠBra": 4473,
      "aji": 4474,
      "ĠTerdapat": 4475,
      "Ġ1984": 4476,
      "ĠAkademi": 4477,
      "ĠDepartemen": 4478,
      "Ġlaba": 4479,
      "Ġtemb": 4480,
      "ĠFa": 4481,
      "Ġfasilitas": 4482,
      "Ġdu": 4483,
      "ĠAlam": 4484,
      "Ġcahaya": 4485,
      "iap": 4486,
      "ook": 4487,
      "alem": 4488,
      "Ġterm": 4489,
      "Ġobat": 4490,
      "mada": 4491,
      "Ġhujan": 4492,
      "ĠBon": 4493,
      "din": 4494,
      "ĠPembangunan": 4495,
      "www": 4496,
      "oci": 4497,
      "unisip": 4498,
      "tahun": 4499,
      "inet": 4500,
      "jualan": 4501,
      "Ġlulus": 4502,
      "ĠOx": 4503,
      "ĠNur": 4504,
      "ĠInt": 4505,
      "Ġrencana": 4506,
      "abila": 4507,
      "Ġdiikuti": 4508,
      "ĠAnt": 4509,
      "ĠCompany": 4510,
      "Ġmerujuk": 4511,
      "ĠBet": 4512,
      "anjutan": 4513,
      "ĠSosial": 4514,
      "erangan": 4515,
      "ĠSwedia": 4516,
      "ukl": 4517,
      "Ġ<": 4518,
      "lasi": 4519,
      "Ġseks": 4520,
      "elajaran": 4521,
      "ĠJapan": 4522,
      "Ġcer": 4523,
      "gar": 4524,
      "ĠBas": 4525,
      "Ġpembuatan": 4526,
      "ĠBom": 4527,
      "Å«": 4528,
      "Ġreg": 4529,
      "Ġstudio": 4530,
      "ĠDana": 4531,
      "ube": 4532,
      "Ġworld": 4533,
      "Ġperjanjian": 4534,
      "Ġposi": 4535,
      "ĠBah": 4536,
      "Ġdif": 4537,
      "Ġkampung": 4538,
      "34": 4539,
      "ĠDPRD": 4540,
      "entikan": 4541,
      "Ġturun": 4542,
      "Ġasing": 4543,
      "PA": 4544,
      "ĠBala": 4545,
      "jadian": 4546,
      "okter": 4547,
      "Ġaktivitas": 4548,
      "ĠPrefektur": 4549,
      "ebasan": 4550,
      "ĠNorth": 4551,
      "ĠBh": 4552,
      "Ġkil": 4553,
      "ĠAkhir": 4554,
      "ĠRecord": 4555,
      "Ġdel": 4556,
      "Ġ...": 4557,
      "col": 4558,
      "Ġtenaga": 4559,
      "seb": 4560,
      "yawa": 4561,
      "artisipasi": 4562,
      "2021": 4563,
      "ĠTip": 4564,
      "kh": 4565,
      "Ġberita": 4566,
      "ĠPemilihan": 4567,
      "31": 4568,
      "angat": 4569,
      "sych": 4570,
      "utif": 4571,
      "edakan": 4572,
      "iyah": 4573,
      "ĠPlat": 4574,
      "itor": 4575,
      "rac": 4576,
      "Ġmili": 4577,
      "encan": 4578,
      "epend": 4579,
      "ewas": 4580,
      "ukis": 4581,
      "ury": 4582,
      "ustak": 4583,
      "indahkan": 4584,
      "dipati": 4585,
      "aren": 4586,
      "insip": 4587,
      "laim": 4588,
      "olongan": 4589,
      "Ġsukses": 4590,
      "center": 4591,
      "Ġterbatas": 4592,
      "ĠTeknologi": 4593,
      "ĠCounty": 4594,
      "cha": 4595,
      "ĠRiwayat": 4596,
      "ĠBerk": 4597,
      "nal": 4598,
      "ĠUkraina": 4599,
      "Ġpuncak": 4600,
      "ĠCy": 4601,
      "ĠHon": 4602,
      "olos": 4603,
      "Ġkeputusan": 4604,
      "OS": 4605,
      "ĠNatural": 4606,
      "risti": 4607,
      "iko": 4608,
      "irasi": 4609,
      "unjung": 4610,
      "ĠBudaya": 4611,
      "rani": 4612,
      "put": 4613,
      "Ġpemenang": 4614,
      "Ġwakil": 4615,
      "Ġpengetahuan": 4616,
      "79": 4617,
      "Ġsaluran": 4618,
      "ĠIrlandia": 4619,
      "baru": 4620,
      "ĠBoy": 4621,
      "Ġmenjelaskan": 4622,
      "Ġtep": 4623,
      "unisipalitas": 4624,
      "ĠJack": 4625,
      "56": 4626,
      "ekar": 4627,
      "aikan": 4628,
      "Ġsastra": 4629,
      "okan": 4630,
      "ewati": 4631,
      "Ġminggu": 4632,
      "angit": 4633,
      "58": 4634,
      "ĠSak": 4635,
      "ege": 4636,
      "gia": 4637,
      "inus": 4638,
      "ĠBus": 4639,
      "bul": 4640,
      "ĠContoh": 4641,
      "Ġpercaya": 4642,
      "app": 4643,
      "76": 4644,
      "ĠBuddha": 4645,
      "van": 4646,
      "BB": 4647,
      "Ġturnamen": 4648,
      "Ġdesain": 4649,
      "Ġkehilangan": 4650,
      "ĠBog": 4651,
      "ĠKy": 4652,
      "Ġkabar": 4653,
      "Ġpeda": 4654,
      "ĠSaint": 4655,
      "ĠFr": 4656,
      "Ġindividu": 4657,
      "06": 4658,
      "eidae": 4659,
      "ĠHel": 4660,
      "acu": 4661,
      "ous": 4662,
      "Ġmengadakan": 4663,
      "Ġpp": 4664,
      "ĠKek": 4665,
      "ĠJer": 4666,
      "01": 4667,
      "turut": 4668,
      "Ġdigantikan": 4669,
      "ĠSamp": 4670,
      "Ġsegala": 4671,
      "net": 4672,
      "Ġharga": 4673,
      "ĠKeluarga": 4674,
      "ĠMoh": 4675,
      "ĠCa": 4676,
      "Ġkela": 4677,
      "etron": 4678,
      "ĠIsti": 4679,
      "Ġmengetahui": 4680,
      "Ġmateri": 4681,
      "unggu": 4682,
      "Ġ(,": 4683,
      "Ġurutan": 4684,
      "Ġmemasuki": 4685,
      "ĠSci": 4686,
      "ukai": 4687,
      "ĠKut": 4688,
      "dy": 4689,
      "Ġsiswa": 4690,
      "assar": 4691,
      "Ġ1982": 4692,
      "Ġsus": 4693,
      "Ġkeuangan": 4694,
      "win": 4695,
      "Ġarea": 4696,
      "Ġdelapan": 4697,
      "Ġbat": 4698,
      "Ġseder": 4699,
      "III": 4700,
      "Ġmencetak": 4701,
      "ĠSanto": 4702,
      "Ġkebutuhan": 4703,
      "Ġkepad": 4704,
      "Ġditerima": 4705,
      "08": 4706,
      "ĠJa": 4707,
      "ĠEast": 4708,
      "esif": 4709,
      "formation": 4710,
      "cher": 4711,
      "Ġupacara": 4712,
      "ĠMiliter": 4713,
      "kin": 4714,
      "elamat": 4715,
      "ajak": 4716,
      "ĠAmor": 4717,
      "engkapi": 4718,
      "ght": 4719,
      "andatangani": 4720,
      "Ġmenganggap": 4721,
      "Ġx": 4722,
      "ĠSemarang": 4723,
      "Ġmemenuhi": 4724,
      "imbol": 4725,
      "dim": 4726,
      "MA": 4727,
      "Ġpenampilan": 4728,
      "Ġketua": 4729,
      "Ġver": 4730,
      "nes": 4731,
      "Ġpuluh": 4732,
      "ĠRas": 4733,
      "arikan": 4734,
      "angkah": 4735,
      "ĠSurat": 4736,
      "Ġpustaka": 4737,
      "Ġmedali": 4738,
      "sitektur": 4739,
      "49": 4740,
      "ĠDom": 4741,
      "endera": 4742,
      "TA": 4743,
      "Ðµ": 4744,
      "ejo": 4745,
      "Ġtewas": 4746,
      "esm": 4747,
      "Ġbuatan": 4748,
      "Ġcalon": 4749,
      "irik": 4750,
      "ĠOleh": 4751,
      "ĠLuk": 4752,
      "ĠKing": 4753,
      "ampong": 4754,
      "ado": 4755,
      "egah": 4756,
      "jakan": 4757,
      "Ġmenang": 4758,
      "Ġ1983": 4759,
      "32": 4760,
      "Ġken": 4761,
      "Ġditetapkan": 4762,
      "Ġnominasi": 4763,
      "emar": 4764,
      "Ġmahasiswa": 4765,
      "BA": 4766,
      "ĠRam": 4767,
      "ĠLampung": 4768,
      "ĠAcademy": 4769,
      "ĠNorman": 4770,
      "Ġkalangan": 4771,
      "tual": 4772,
      "ven": 4773,
      "Ġbakar": 4774,
      "PD": 4775,
      "itz": 4776,
      "ĠVan": 4777,
      "aceae": 4778,
      "Ġpos": 4779,
      "ĠChampions": 4780,
      "Ġgenerasi": 4781,
      "Ġdilaksanakan": 4782,
      "Ġtahu": 4783,
      "Ð¸": 4784,
      "ematika": 4785,
      "elajari": 4786,
      "alin": 4787,
      "kadang": 4788,
      "nyata": 4789,
      "olf": 4790,
      "ĠÅ": 4791,
      "ustakaan": 4792,
      "abu": 4793,
      "eck": 4794,
      "amad": 4795,
      "ĠOt": 4796,
      "05": 4797,
      "daftar": 4798,
      "lain": 4799,
      "Ġsuhu": 4800,
      "lidae": 4801,
      "ĠTri": 4802,
      "uz": 4803,
      "Ġdisebabkan": 4804,
      "Ġberka": 4805,
      "Ġlunak": 4806,
      "Ġmenentukan": 4807,
      "Ġoff": 4808,
      "usnya": 4809,
      "ĠVir": 4810,
      "ock": 4811,
      "ĠPenduduk": 4812,
      "entasi": 4813,
      "Ġanim": 4814,
      "Ġkritik": 4815,
      "ĠMartin": 4816,
      "Ġibunya": 4817,
      "Ġaplikasi": 4818,
      "ĠRock": 4819,
      "Ġ;": 4820,
      "ĠDirektur": 4821,
      "Ġsc": 4822,
      "ĠGreen": 4823,
      "Ġpendukung": 4824,
      "Ġula": 4825,
      "ĠBatu": 4826,
      "Ġkompleks": 4827,
      "unyi": 4828,
      "etri": 4829,
      "opsi": 4830,
      "Ġsetempat": 4831,
      "Ġmemproduksi": 4832,
      "Ġkemerdekaan": 4833,
      "ĠPutra": 4834,
      "ĠKomisi": 4835,
      "ĠHenry": 4836,
      "gang": 4837,
      "ele": 4838,
      "ova": 4839,
      "ĠKatedral": 4840,
      "len": 4841,
      "entitas": 4842,
      "ĠGirl": 4843,
      "Ġpembalap": 4844,
      "ĠKesehatan": 4845,
      "atnya": 4846,
      "umsi": 4847,
      "ormatan": 4848,
      "ĠCamp": 4849,
      "ĠTiga": 4850,
      "Ġkot": 4851,
      "Ġkisah": 4852,
      "jen": 4853,
      "rak": 4854,
      "Ġmiliar": 4855,
      "Ġkelah": 4856,
      "agus": 4857,
      "Ġberkaitan": 4858,
      "Î±": 4859,
      "Ġ1979": 4860,
      "Ġ#": 4861,
      "Ġkelahiran": 4862,
      "ĠLos": 4863,
      "ario": 4864,
      "ĠAsilidae": 4865,
      "Ġpertemuan": 4866,
      "Ġoksigen": 4867,
      "ĠIstilah": 4868,
      "Ġperbedaan": 4869,
      "background": 4870,
      "onel": 4871,
      "so": 4872,
      "Ġkursi": 4873,
      "arawan": 4874,
      "ĠGun": 4875,
      "Ġadministratif": 4876,
      "ĠDani": 4877,
      "anji": 4878,
      "Ġkomunikasi": 4879,
      "Ġpabrik": 4880,
      "ĠTeluk": 4881,
      "Ġmasjid": 4882,
      "Ġmo": 4883,
      "ukur": 4884,
      "ĠHungaria": 4885,
      "44": 4886,
      "Ġsitu": 4887,
      "ubungkan": 4888,
      "mur": 4889,
      "ragal": 4890,
      "1998": 4891,
      "Ġsaling": 4892,
      "ĠKarang": 4893,
      "anth": 4894,
      "ĠOp": 4895,
      "out": 4896,
      "ĠId": 4897,
      "ĠKampung": 4898,
      "olisi": 4899,
      "poran": 4900,
      "Ġujung": 4901,
      "esisir": 4902,
      "ĠPantai": 4903,
      "ĠAbu": 4904,
      "cus": 4905,
      "Ġdiumumkan": 4906,
      "ĠPermainan": 4907,
      "ragalus": 4908,
      "ĠSuci": 4909,
      "ĠHigh": 4910,
      "ĠTs": 4911,
      "07": 4912,
      "egan": 4913,
      "Ġproduser": 4914,
      "Ġberjumlah": 4915,
      "Ġ1981": 4916,
      "asaan": 4917,
      "Ġmengeluarkan": 4918,
      "ĠTelevisi": 4919,
      "ĠPot": 4920,
      "lima": 4921,
      "ĠPenc": 4922,
      "ĠPos": 4923,
      "uy": 4924,
      "Ġpenja": 4925,
      "ĠPolitikus": 4926,
      "ĠLaba": 4927,
      "59": 4928,
      "Ġkac": 4929,
      "uduki": 4930,
      "NA": 4931,
      "Ġpositif": 4932,
      "ingatan": 4933,
      "ĠPrix": 4934,
      "angkit": 4935,
      "ĠMasyarakat": 4936,
      "bal": 4937,
      "ĠRujukan": 4938,
      "2022": 4939,
      "Ġberfungsi": 4940,
      "Ġbekas": 4941,
      "Ġpeningkatan": 4942,
      "Ġbet": 4943,
      "ukiman": 4944,
      "Ġmemakai": 4945,
      "nu": 4946,
      "Ġpilihan": 4947,
      "Ġlengkap": 4948,
      "obatan": 4949,
      "Ġmassa": 4950,
      "umpulkan": 4951,
      "Ġlem": 4952,
      "Ġpertunjukan": 4953,
      "indak": 4954,
      "Ġkebanyakan": 4955,
      "anggil": 4956,
      "Ġkadang": 4957,
      "Ġjadi": 4958,
      "ii": 4959,
      "Ġperbatasan": 4960,
      "Ġtema": 4961,
      "ĠKomune": 4962,
      "yangan": 4963,
      "Ġteks": 4964,
      "los": 4965,
      "ĠKos": 4966,
      "iny": 4967,
      "ĠKantor": 4968,
      "ĠMyc": 4969,
      "Ġcatalog": 4970,
      "Ġmengurangi": 4971,
      "Ġmemegang": 4972,
      "Ġ(),": 4973,
      "faatkan": 4974,
      "kol": 4975,
      "ox": 4976,
      "PP": 4977,
      "ĠJi": 4978,
      "itual": 4979,
      "ĠTour": 4980,
      "Ġhilang": 4981,
      "Ġputaran": 4982,
      "ason": 4983,
      "hol": 4984,
      "Ġdiubah": 4985,
      "gunaan": 4986,
      "ĠKata": 4987,
      "Ġterbagi": 4988,
      "Ġbukti": 4989,
      "ĠRuang": 4990,
      "iety": 4991,
      "tus": 4992,
      "Ġpolisi": 4993,
      "ĠWak": 4994,
      "ography": 4995,
      "ĠInstitut": 4996,
      "Ġcinta": 4997,
      "dal": 4998,
      "Ġdahulu": 4999,
      "Ġsig": 5000,
      "ĠSwiss": 5001,
      "Ġgitar": 5002,
      "Ġsayap": 5003,
      "Ġberkata": 5004,
      "Ġpejabat": 5005,
      "ikir": 5006,
      "unjungi": 5007,
      "Ġsipil": 5008,
      "Ġata": 5009,
      "ewi": 5010,
      "akibatkan": 5011,
      "elakaan": 5012,
      "ĠPlay": 5013,
      "Ġlapangan": 5014,
      "CA": 5015,
      "juangan": 5016,
      "ambi": 5017,
      "ĠAnton": 5018,
      "ĠBir": 5019,
      "ersial": 5020,
      "ĠBola": 5021,
      "pek": 5022,
      "bai": 5023,
      "Ġpetani": 5024,
      "Ġmm": 5025,
      "ĠTab": 5026,
      "vensi": 5027,
      "ĠVictor": 5028,
      "Ġmelayani": 5029,
      "nif": 5030,
      "ĠMakassar": 5031,
      "ĠPla": 5032,
      "Ġpenjualan": 5033,
      "Ġmenghadapi": 5034,
      "ĠIndustri": 5035,
      "09": 5036,
      "Ġdiperkirakan": 5037,
      "Ġlogam": 5038,
      "ĠMaluku": 5039,
      "isk": 5040,
      "ĠSekretaris": 5041,
      "ĠPart": 5042,
      "zo": 5043,
      "eksiko": 5044,
      "pon": 5045,
      "ĠWat": 5046,
      "tra": 5047,
      "wai": 5048,
      "Ġimp": 5049,
      "asitas": 5050,
      "ĠSetiap": 5051,
      "ball": 5052,
      "Ġcm": 5053,
      "ĠSerial": 5054,
      "ilaku": 5055,
      "Ġbagaimana": 5056,
      "ĠAhmad": 5057,
      "ĠFinal": 5058,
      "Ġdihasilkan": 5059,
      ";\"": 5060,
      "utar": 5061,
      "Ġ1978": 5062,
      "ges": 5063,
      "Ġbilangan": 5064,
      "omen": 5065,
      "Ġmencatat": 5066,
      "ahat": 5067,
      "gion": 5068,
      "alib": 5069,
      "lok": 5070,
      "77": 5071,
      "endali": 5072,
      "Ġangka": 5073,
      "Ġsulit": 5074,
      "ĠPari": 5075,
      "inis": 5076,
      "apak": 5077,
      "ilu": 5078,
      "ĠEpisode": 5079,
      "Ġdiluncurkan": 5080,
      "ĠHindu": 5081,
      "Ġpolitikus": 5082,
      "Ġpimpinan": 5083,
      "ĠBib": 5084,
      "Ġkeju": 5085,
      "Ġspider": 5086,
      "Ġkeamanan": 5087,
      ",\"": 5088,
      "Ġbertugas": 5089,
      "Ġkontes": 5090,
      "ĠLam": 5091,
      "ĠPenyanyi": 5092,
      "alek": 5093,
      "empa": 5094,
      "ors": 5095,
      "ĠSeorang": 5096,
      "arakter": 5097,
      "itch": 5098,
      "entina": 5099,
      "asang": 5100,
      "ĠSah": 5101,
      "etan": 5102,
      "ihan": 5103,
      "ĠDatabase": 5104,
      "enia": 5105,
      "ĠNik": 5106,
      "Ber": 5107,
      "ĠUndang": 5108,
      "llum": 5109,
      "ĠJour": 5110,
      "ĠAraneae": 5111,
      "yataan": 5112,
      "udut": 5113,
      "Ġang": 5114,
      "amkan": 5115,
      "opsis": 5116,
      "ĠDemokrat": 5117,
      "ebon": 5118,
      "Ġdewa": 5119,
      "Ġhist": 5120,
      "ektif": 5121,
      "oka": 5122,
      "Ġistana": 5123,
      "Ġsederhana": 5124,
      "ull": 5125,
      "ĠAnti": 5126,
      "Ġadik": 5127,
      "Ġterpisah": 5128,
      "ĠEli": 5129,
      "ĠAnth": 5130,
      "Ã¡n": 5131,
      "ĠJean": 5132,
      "byli": 5133,
      "Ġringan": 5134,
      "ĠAku": 5135,
      "resi": 5136,
      "ĠGeorg": 5137,
      "ĠAgrilus": 5138,
      "Ġkecuali": 5139,
      "onf": 5140,
      "Ġkanan": 5141,
      "Ġmurid": 5142,
      "ĠDj": 5143,
      "ewa": 5144,
      "Ġdiran": 5145,
      "udus": 5146,
      "intaan": 5147,
      "ĠNaz": 5148,
      "Ġkos": 5149,
      "ahlawan": 5150,
      "ĠSus": 5151,
      "Ġdisebutkan": 5152,
      "Ġkilometer": 5153,
      "ĠCur": 5154,
      "Ġpembentukan": 5155,
      "ĠCollege": 5156,
      "Ġtapi": 5157,
      "ĠCr": 5158,
      "Ġer": 5159,
      "Ġuniversitas": 5160,
      "Ġdian": 5161,
      "ektar": 5162,
      "Ġganda": 5163,
      "uklir": 5164,
      "Ġberlak": 5165,
      "Ġben": 5166,
      "1997": 5167,
      "Ġartikel": 5168,
      "Ġkitab": 5169,
      "ĠRadio": 5170,
      "ces": 5171,
      "ĠRh": 5172,
      "MI": 5173,
      "ĠMax": 5174,
      "Mar": 5175,
      "uw": 5176,
      "ĠPad": 5177,
      "Ġmenteri": 5178,
      "okrasi": 5179,
      "Ã§": 5180,
      "damp": 5181,
      "Ġmembuatnya": 5182,
      "lad": 5183,
      "ĠMir": 5184,
      "Ġswasta": 5185,
      "arki": 5186,
      "ĠPerwakilan": 5187,
      "ĠLabor": 5188,
      "ague": 5189,
      "ection": 5190,
      "cel": 5191,
      "ble": 5192,
      "ĠLeb": 5193,
      "antaranya": 5194,
      "ĠResmi": 5195,
      "ĠPasukan": 5196,
      "ĠMedan": 5197,
      "ĠLembaga": 5198,
      "pl": 5199,
      "ĠMich": 5200,
      "ĠFrancis": 5201,
      "ĠPictur": 5202,
      "Ġataupun": 5203,
      "eskripsi": 5204,
      "ĠSingel": 5205,
      "Ġbar": 5206,
      "rick": 5207,
      "04": 5208,
      "Ġangkatan": 5209,
      "lav": 5210,
      "cayaan": 5211,
      "Ġpersen": 5212,
      "ĠChristi": 5213,
      "ĠSociety": 5214,
      "ago": 5215,
      "Ġdirancang": 5216,
      "ophyllum": 5217,
      "als": 5218,
      "ĠFin": 5219,
      "onial": 5220,
      "ĠMeksiko": 5221,
      "Ġlebar": 5222,
      "Ġkiri": 5223,
      "sychot": 5224,
      "ĠJul": 5225,
      "ĠRiau": 5226,
      "Ġ1973": 5227,
      "ĠJac": 5228,
      "alatan": 5229,
      "ĠHid": 5230,
      "embak": 5231,
      "inding": 5232,
      "Ġberc": 5233,
      "Ġpred": 5234,
      "86": 5235,
      "Ġmenging": 5236,
      "Ġdikirim": 5237,
      "adiah": 5238,
      "lis": 5239,
      "Ġmol": 5240,
      "Ġsingle": 5241,
      "ĠWali": 5242,
      "ĠBombyli": 5243,
      "Ġaksi": 5244,
      "sychotria": 5245,
      "romosi": 5246,
      "ĠDer": 5247,
      "KB": 5248,
      "asasti": 5249,
      "Ġ35": 5250,
      "ĠAyah": 5251,
      "raw": 5252,
      "eritakan": 5253,
      "ogen": 5254,
      "Ġdepartemen": 5255,
      "wisata": 5256,
      "Ġtahap": 5257,
      "arto": 5258,
      "iger": 5259,
      "sara": 5260,
      "ĠWah": 5261,
      "mus": 5262,
      "Ġmelewati": 5263,
      "ĠMr": 5264,
      "ambridge": 5265,
      "Î¿": 5266,
      "atis": 5267,
      "AD": 5268,
      "ĠKamp": 5269,
      "ĠBidang": 5270,
      "ĠWi": 5271,
      "die": 5272,
      "ĠKelas": 5273,
      "ĠYear": 5274,
      "board": 5275,
      "Ġ1976": 5276,
      "ichi": 5277,
      "Ġalih": 5278,
      "Ġtekanan": 5279,
      "Ġserangga": 5280,
      "Amer": 5281,
      "Ġ1975": 5282,
      "85": 5283,
      "shire": 5284,
      "ĠAdipati": 5285,
      "ugerah": 5286,
      "Ġpemilik": 5287,
      "ĠBrit": 5288,
      "rey": 5289,
      "ahi": 5290,
      "AL": 5291,
      "EN": 5292,
      "Ġdingin": 5293,
      "ĠPersi": 5294,
      "Ġbila": 5295,
      "Ġpintu": 5296,
      "urnal": 5297,
      "eus": 5298,
      "ormasi": 5299,
      "Ġberpen": 5300,
      "Ġpanggung": 5301,
      "Ġkami": 5302,
      "lindungan": 5303,
      "Ġmenurun": 5304,
      "day": 5305,
      "ĠKesultanan": 5306,
      "ree": 5307,
      "Ġayat": 5308,
      "Ġ1977": 5309,
      "Ġrah": 5310,
      "Ġberkeb": 5311,
      "vel": 5312,
      "antren": 5313,
      "Ġlatar": 5314,
      "ondok": 5315,
      "ĠMik": 5316,
      "ĠWash": 5317,
      "ico": 5318,
      "Ġmayoritas": 5319,
      "Ġkomersial": 5320,
      "Ġdiam": 5321,
      "ĠMov": 5322,
      "raja": 5323,
      "uto": 5324,
      "Ġpenyel": 5325,
      "obi": 5326,
      "ĠNusa": 5327,
      "Ġversion": 5328,
      "ning": 5329,
      "Ġco": 5330,
      "ert": 5331,
      "Ġtersi": 5332,
      "ĠMalang": 5333,
      "ĠPon": 5334,
      "02": 5335,
      "ĠArch": 5336,
      "Ġtulisan": 5337,
      "Ġlewat": 5338,
      "Ġmenaw": 5339,
      "ĠCina": 5340,
      "ÙĦ": 5341,
      "ĠAdministr": 5342,
      "ekor": 5343,
      "ĠLeg": 5344,
      "03": 5345,
      "Ġsemi": 5346,
      "Ġperhatian": 5347,
      "Ġserupa": 5348,
      "Ġkalah": 5349,
      "ilia": 5350,
      "Ġkesempatan": 5351,
      "Ġberlaku": 5352,
      "untungan": 5353,
      "ĠWo": 5354,
      "Ġreaksi": 5355,
      "Ġpelaksana": 5356,
      "yl": 5357,
      "ĠJoseph": 5358,
      "asaran": 5359,
      "ĠOne": 5360,
      "Ġberhenti": 5361,
      "Ġajang": 5362,
      "dapatan": 5363,
      "Ġmendorong": 5364,
      "imbulkan": 5365,
      "Ġdiperlukan": 5366,
      "ĠFac": 5367,
      "ĠSant": 5368,
      "ĠYay": 5369,
      "ĠDenmark": 5370,
      "ĠBlu": 5371,
      "Ġmembeli": 5372,
      "etoph": 5373,
      "Ġrump": 5374,
      "daya": 5375,
      "Ġberhubungan": 5376,
      "yatakan": 5377,
      "Ġmenyimp": 5378,
      "ĠWill": 5379,
      "ĠMary": 5380,
      "Ġ1974": 5381,
      "kamah": 5382,
      "ĠMun": 5383,
      "''": 5384,
      "unuhan": 5385,
      "Ġbertanggung": 5386,
      "ĠRub": 5387,
      "romosikan": 5388,
      "uke": 5389,
      "oshi": 5390,
      "ĠOperasi": 5391,
      "ĠBea": 5392,
      "gin": 5393,
      "omun": 5394,
      "ĠAssoci": 5395,
      "anyikan": 5396,
      "ett": 5397,
      "Ġdiantaranya": 5398,
      "Ġmit": 5399,
      "Ġpengan": 5400,
      "ĠBangunan": 5401,
      "ĠRT": 5402,
      "Ġny": 5403,
      "eliti": 5404,
      "impunan": 5405,
      "ĠReg": 5406,
      "ĠDasar": 5407,
      "eliling": 5408,
      "Ġpelangg": 5409,
      "weg": 5410,
      "olia": 5411,
      "Ġsamping": 5412,
      "ĠAy": 5413,
      "Ġetnis": 5414,
      "Ġhijau": 5415,
      "ĠClub": 5416,
      "ogo": 5417,
      "ikal": 5418,
      "Ġmelam": 5419,
      "Ġperse": 5420,
      "jurit": 5421,
      "aktif": 5422,
      "Ġterbuat": 5423,
      "Ġjangka": 5424,
      "Ġseng": 5425,
      "osen": 5426,
      "ois": 5427,
      "madi": 5428,
      "Ġhalaman": 5429,
      "Ġtipe": 5430,
      "à¤": 5431,
      "zin": 5432,
      "ĠBek": 5433,
      "jak": 5434,
      "ĠKelompok": 5435,
      "Ġdaging": 5436,
      "Ġrekan": 5437,
      "ĠHall": 5438,
      "Ġfitur": 5439,
      "ĠMerah": 5440,
      "yanya": 5441,
      "Ġtab": 5442,
      "adu": 5443,
      "grasi": 5444,
      "1996": 5445,
      "bophyllum": 5446,
      "ĠJam": 5447,
      "ĠBombyliidae": 5448,
      "esan": 5449,
      "ĠPesawat": 5450,
      "Ġlaporan": 5451,
      "awal": 5452,
      "jas": 5453,
      "ĠWanita": 5454,
      "ĠBelgia": 5455,
      "Ġ1972": 5456,
      "1995": 5457,
      "Ġdokter": 5458,
      "Ġskor": 5459,
      "Ġburuk": 5460,
      "Ġleg": 5461,
      "Ġsetengah": 5462,
      "ĠInc": 5463,
      "ĠLama": 5464,
      "yaran": 5465,
      "sep": 5466,
      "hip": 5467,
      "gasi": 5468,
      "ĠChi": 5469,
      "Ġberpartisipasi": 5470,
      "ĠHab": 5471,
      "masi": 5472,
      "Ġdist": 5473,
      "ĠMong": 5474,
      "Ġlayar": 5475,
      "elan": 5476,
      "edak": 5477,
      "ĠVi": 5478,
      "Ġpersi": 5479,
      "Ġ1965": 5480,
      "Ġdilihat": 5481,
      "ĠPenulis": 5482,
      "Ġ1968": 5483,
      "enam": 5484,
      "ĠInj": 5485,
      "ĠGaleri": 5486,
      "emahan": 5487,
      "elamatkan": 5488,
      "Ġdibawa": 5489,
      "Ġtertua": 5490,
      "Ġkonflik": 5491,
      "ĠBad": 5492,
      "ound": 5493,
      "ungkapkan": 5494,
      "Ġins": 5495,
      "chen": 5496,
      "ĠEdward": 5497,
      "ĠOxford": 5498,
      "hta": 5499,
      "Ġfaktor": 5500,
      "66": 5501,
      "ews": 5502,
      "Ġmenjaga": 5503,
      "ision": 5504,
      "ĠAdam": 5505,
      "sman": 5506,
      "ĠLingk": 5507,
      "43": 5508,
      "Ġpandangan": 5509,
      "Ġbersamaan": 5510,
      "Ġglobal": 5511,
      "ĠKumbang": 5512,
      "esta": 5513,
      "Ġmenawarkan": 5514,
      "Ġ500": 5515,
      "41": 5516,
      "Ġkej": 5517,
      "Ġne": 5518,
      "KT": 5519,
      "safat": 5520,
      "lish": 5521,
      "ering": 5522,
      "ĠNews": 5523,
      "Ġsul": 5524,
      "dows": 5525,
      "ĠLay": 5526,
      "Ġpotensi": 5527,
      "ĠKhan": 5528,
      "Ġkonser": 5529,
      "Ġdima": 5530,
      "Ġakses": 5531,
      "ĠGod": 5532,
      "ĠHas": 5533,
      "ĠPersia": 5534,
      "iburan": 5535,
      "ampaikan": 5536,
      "Ġdidasarkan": 5537,
      "ait": 5538,
      "lie": 5539,
      "Ġmenjual": 5540,
      "ÑĢ": 5541,
      "Ġjasa": 5542,
      "Ġditunjuk": 5543,
      "Ġpertumbuhan": 5544,
      "ĠBut": 5545,
      "Ġkeluarganya": 5546,
      "Ġribu": 5547,
      "ĠBogor": 5548,
      "ĠFred": 5549,
      "Ġmengaku": 5550,
      "evel": 5551,
      "ĠWashington": 5552,
      "Ġteg": 5553,
      "ĠRen": 5554,
      "ject": 5555,
      "42": 5556,
      "Ġrelatif": 5557,
      "ĠLuar": 5558,
      "Ġdijual": 5559,
      "ĠBany": 5560,
      "ĠBersama": 5561,
      "Ġpenonton": 5562,
      "Ġmenempati": 5563,
      "ream": 5564,
      "ĠAnda": 5565,
      "set": 5566,
      "Ġmembutuhkan": 5567,
      "Ġ1971": 5568,
      "ĠHir": 5569,
      "Ġ1969": 5570,
      "Ġmenjalankan": 5571,
      "ĠCirebon": 5572,
      "Ġberbicara": 5573,
      "ĠHouse": 5574,
      "Ġkan": 5575,
      "angkalan": 5576,
      "arif": 5577,
      "arasi": 5578,
      "ĠKid": 5579,
      "89": 5580,
      "du": 5581,
      "71": 5582,
      "ependen": 5583,
      "onan": 5584,
      "Ġberkomp": 5585,
      "Ġmengakibatkan": 5586,
      "agar": 5587,
      "ĠKisah": 5588,
      "Ġmor": 5589,
      "rok": 5590,
      "istrinya": 5591,
      "ĠBanten": 5592,
      "ĠAug": 5593,
      "ĠRay": 5594,
      "ĠSamud": 5595,
      "ius": 5596,
      "Ġmik": 5597,
      "Ġbe": 5598,
      "ĠWalaupun": 5599,
      "gional": 5600,
      "ĠAth": 5601,
      "Ġartis": 5602,
      "Ġmenambahkan": 5603,
      "ĠNot": 5604,
      "undur": 5605,
      "Ġberkebangsaan": 5606,
      "erikatan": 5607,
      "Ġfoto": 5608,
      "Ð½": 5609,
      "akaran": 5610,
      "Ġ1967": 5611,
      "Ġsepen": 5612,
      "nifikan": 5613,
      "ĠMajelis": 5614,
      "eft": 5615,
      "ĠNus": 5616,
      "Ġmenerbitkan": 5617,
      ":#": 5618,
      "Ġkeker": 5619,
      "ĠPurw": 5620,
      "Ġcon": 5621,
      "ium": 5622,
      "Äĩ": 5623,
      "ĠFat": 5624,
      "tip": 5625,
      "andra": 5626,
      "Î½": 5627,
      "elap": 5628,
      "indungi": 5629,
      "Ã³n": 5630,
      "log": 5631,
      "Ġmekan": 5632,
      "jer": 5633,
      "arch": 5634,
      "Ġperintah": 5635,
      "ĠJin": 5636,
      "Ġartinya": 5637,
      "sky": 5638,
      "ĠJenis": 5639,
      "Ġsimbol": 5640,
      "ebat": 5641,
      "work": 5642,
      "inginan": 5643,
      "erusalem": 5644,
      "ĠStev": 5645,
      "ephrit": 5646,
      "unci": 5647,
      "ĠMycetoph": 5648,
      "jing": 5649,
      "andu": 5650,
      "ĠBerlin": 5651,
      "Ġdinyatakan": 5652,
      "ĠInstitute": 5653,
      "Ġistrinya": 5654,
      "Ġmengatur": 5655,
      "yal": 5656,
      "ĠTimor": 5657,
      "ĠIbrani": 5658,
      "Â°": 5659,
      "ĠAlf": 5660,
      "Ġtaw": 5661,
      "Ġperwira": 5662,
      "adopsi": 5663,
      "ĠFil": 5664,
      "Ġrel": 5665,
      "ĠKuno": 5666,
      "ĠBag": 5667,
      "ĠRp": 5668,
      "edy": 5669,
      "ĠUN": 5670,
      "Ġcampuran": 5671,
      "ange": 5672,
      "Ġsepuluh": 5673,
      "Ġru": 5674,
      "Ġkelima": 5675,
      "Ġpertahanan": 5676,
      "ĠSepak": 5677,
      "ĠHill": 5678,
      "rogen": 5679,
      "Ġmencegah": 5680,
      "Ġanimasi": 5681,
      "Ġatom": 5682,
      "ĠModel": 5683,
      "ĠKomandan": 5684,
      "Ġmeman": 5685,
      "ross": 5686,
      "ĠBin": 5687,
      "alikan": 5688,
      "Ġanime": 5689,
      "wakan": 5690,
      "ĠShow": 5691,
      "Ġpakaian": 5692,
      "ĠRus": 5693,
      "Ġgadis": 5694,
      "ere": 5695,
      "ody": 5696,
      "Ġpsik": 5697,
      "ĠNob": 5698,
      "ĠPolit": 5699,
      "ĠWon": 5700,
      "ĠPasar": 5701,
      "ĠBulan": 5702,
      "ejarah": 5703,
      "val": 5704,
      "Ġkepemimpinan": 5705,
      "Ġtersebar": 5706,
      "65": 5707,
      "ĠAtas": 5708,
      "ĠGeografi": 5709,
      "Ġnuklir": 5710,
      "ĠGuru": 5711,
      "Ġnya": 5712,
      "Ġtaman": 5713,
      "ĠKapal": 5714,
      "ĠMaka": 5715,
      "FC": 5716,
      "ĠMetro": 5717,
      "ĠArgentina": 5718,
      "ĠKereta": 5719,
      "ĠLand": 5720,
      "Ġdana": 5721,
      "antas": 5722,
      "ĠShin": 5723,
      "po": 5724,
      "lawanan": 5725,
      "...": 5726,
      "Ġdiperkenalkan": 5727,
      "ach": 5728,
      "ĠAstragalus": 5729,
      "Ġalami": 5730,
      "dat": 5731,
      "ĠDig": 5732,
      "Nya": 5733,
      "orit": 5734,
      "Ġmenyebutkan": 5735,
      "akhiri": 5736,
      "Ġsudut": 5737,
      "Ġdimainkan": 5738,
      "Ġsehari": 5739,
      "stein": 5740,
      "Ġberumur": 5741,
      "ebunan": 5742,
      "top": 5743,
      "ĠVI": 5744,
      "Ġ45": 5745,
      "ĠBatas": 5746,
      "ĠNar": 5747,
      "Ġinst": 5748,
      "Ġdilengkapi": 5749,
      "ĠYoung": 5750,
      "epon": 5751,
      "ĠFormula": 5752,
      "arget": 5753,
      "Ġtuan": 5754,
      "ĠPalest": 5755,
      "ĠPam": 5756,
      "Ġmusuh": 5757,
      "cs": 5758,
      "ĠPerp": 5759,
      "ĠCO": 5760,
      "ĠDrama": 5761,
      "baikan": 5762,
      "otlandia": 5763,
      "ĠTephrit": 5764,
      "cam": 5765,
      "erm": 5766,
      "ĠRaj": 5767,
      "ĠImp": 5768,
      "nas": 5769,
      "Ġlintas": 5770,
      "ĠWindows": 5771,
      "ring": 5772,
      "ĠYayasan": 5773,
      "lihat": 5774,
      "itif": 5775,
      "ĠLong": 5776,
      "Ġpart": 5777,
      "Ġperwakilan": 5778,
      "1993": 5779,
      "ĠShe": 5780,
      "zz": 5781,
      "ĠSystem": 5782,
      "SM": 5783,
      "ister": 5784,
      "Ġfiksi": 5785,
      "Ġgelombang": 5786,
      "rim": 5787,
      "rof": 5788,
      "entingan": 5789,
      "omatis": 5790,
      "angguan": 5791,
      "ĠCorpor": 5792,
      "abiskan": 5793,
      "Ġmotor": 5794,
      "Ġwalaupun": 5795,
      "angsawan": 5796,
      "Ġmenyerap": 5797,
      "angi": 5798,
      "ĠLouis": 5799,
      "iam": 5800,
      "damaian": 5801,
      "juk": 5802,
      "1994": 5803,
      "ĠKristus": 5804,
      "ohanes": 5805,
      "ĠRecords": 5806,
      "ĠDik": 5807,
      "Ġsini": 5808,
      "88": 5809,
      "Ġgame": 5810,
      "Ġkecelakaan": 5811,
      "ĠLatar": 5812,
      "Ġberagam": 5813,
      "ĠEar": 5814,
      "sinya": 5815,
      "Bangsa": 5816,
      "Ġvon": 5817,
      "unus": 5818,
      "ĠMuda": 5819,
      "Ġmelarikan": 5820,
      "PT": 5821,
      "Ġapakah": 5822,
      "ĠAki": 5823,
      "ky": 5824,
      "Ġbank": 5825,
      "Ġketidak": 5826,
      "ĠBeg": 5827,
      "orial": 5828,
      "Ġmanajemen": 5829,
      "Ġperairan": 5830,
      "tein": 5831,
      "ĠArmen": 5832,
      "Ġsektor": 5833,
      "Î¹": 5834,
      "Ġsignifikan": 5835,
      "peng": 5836,
      "ĠAndr": 5837,
      "ĠTimes": 5838,
      "yair": 5839,
      "Ġrum": 5840,
      "oft": 5841,
      "eku": 5842,
      "Ġberkompetisi": 5843,
      "ĠLuc": 5844,
      "ĠInv": 5845,
      "guna": 5846,
      "nick": 5847,
      "ĠData": 5848,
      "Ġdikatakan": 5849,
      "95": 5850,
      "ĠGus": 5851,
      "ÅĤ": 5852,
      "ĠInternet": 5853,
      "74": 5854,
      "sor": 5855,
      "spirasi": 5856,
      "ajar": 5857,
      "ĠDanau": 5858,
      "Ġ1966": 5859,
      "anjing": 5860,
      "iku": 5861,
      "Ġlolos": 5862,
      "US": 5863,
      "ranya": 5864,
      "ucing": 5865,
      "Ġhadir": 5866,
      "ĠKeamanan": 5867,
      "Ġmenduduki": 5868,
      "Ġadministrasi": 5869,
      "Ġmempelajari": 5870,
      "ĠSkotlandia": 5871,
      "Ġbes": 5872,
      "ĠPanas": 5873,
      "ĠGerakan": 5874,
      "Ġmacam": 5875,
      "Ġmemang": 5876,
      "ogle": 5877,
      "ĠPembagian": 5878,
      "encanakan": 5879,
      "Ġmerebut": 5880,
      "Ġajaran": 5881,
      "Ġdusun": 5882,
      "ĠKomite": 5883,
      "ĠKali": 5884,
      "Ġ1963": 5885,
      "Ġcom": 5886,
      "ĠPac": 5887,
      "ĠPember": 5888,
      "Ġlomba": 5889,
      "ujian": 5890,
      "Ġpraktik": 5891,
      "Ġberukuran": 5892,
      "Ġkuning": 5893,
      "ĠTal": 5894,
      "elli": 5895,
      "500": 5896,
      "ello": 5897,
      "esor": 5898,
      "Ġ1964": 5899,
      "uliah": 5900,
      "ĠKarakter": 5901,
      "urah": 5902,
      "ĠAngeles": 5903,
      "Ã±": 5904,
      "Ġkam": 5905,
      "Ġmenguasai": 5906,
      "sari": 5907,
      "lagu": 5908,
      "ĠHat": 5909,
      "hak": 5910,
      "ĠSon": 5911,
      "ĠGedung": 5912,
      "Ġakadem": 5913,
      "ĠSmith": 5914,
      "bol": 5915,
      "ĠDaniel": 5916,
      "ĠMill": 5917,
      "ŃĲ": 5918,
      "Ġditangkap": 5919,
      "ĠFl": 5920,
      "ropol": 5921,
      "ĠMu": 5922,
      "ĠKari": 5923,
      "Ġ80": 5924,
      "erto": 5925,
      "Ġsenyawa": 5926,
      "Ġmanga": 5927,
      "olisian": 5928,
      "Ġkepercayaan": 5929,
      "yr": 5930,
      "otong": 5931,
      "ĠCla": 5932,
      "okteran": 5933,
      "jaan": 5934,
      "ĠCambridge": 5935,
      "ĠHubungan": 5936,
      "Ġund": 5937,
      "ĠTephritidae": 5938,
      "port": 5939,
      "ĠTen": 5940,
      "%.": 5941,
      "ĠYu": 5942,
      "endro": 5943,
      "1992": 5944,
      "Ġtik": 5945,
      "ĠHil": 5946,
      "be": 5947,
      "roversi": 5948,
      "Ġrock": 5949,
      "Ġdigambarkan": 5950,
      "imbangan": 5951,
      "CO": 5952,
      "ĠPakistan": 5953,
      "ski": 5954,
      "ĠSanta": 5955,
      "stant": 5956,
      "etakan": 5957,
      "Å¡": 5958,
      "ĠTah": 5959,
      "ĠPsychotria": 5960,
      "ĠRaden": 5961,
      "awatan": 5962,
      "Ġus": 5963,
      "Ġaudi": 5964,
      "Ġdioperasikan": 5965,
      "aro": 5966,
      "ĠSes": 5967,
      "omotif": 5968,
      "Ġpemberontakan": 5969,
      "ategi": 5970,
      "kah": 5971,
      "elih": 5972,
      "Ġkomune": 5973,
      "Ġkomponen": 5974,
      "dium": 5975,
      "Ġsebutan": 5976,
      "ujui": 5977,
      "Ġmelaksanakan": 5978,
      "ayaan": 5979,
      "tida": 5980,
      "ahami": 5981,
      "ĠMid": 5982,
      "indari": 5983,
      "Ġkariernya": 5984,
      "oku": 5985,
      "ĠPerserikatan": 5986,
      "Ġjenderal": 5987,
      "olabor": 5988,
      "Ġsenior": 5989,
      "ady": 5990,
      "ĠSeries": 5991,
      "Ġperc": 5992,
      "odal": 5993,
      "ĠRem": 5994,
      "ophagus": 5995,
      "Ġ1962": 5996,
      "Ġ1930": 5997,
      "ĠGab": 5998,
      "ĠKebanyakan": 5999,
      "lang": 6000,
      "Ġpensi": 6001,
      "ĠUniver": 6002,
      "Ġmini": 6003,
      "ĠTech": 6004,
      "dt": 6005,
      "pem": 6006,
      "Ġmenetapkan": 6007,
      "km": 6008,
      "ĠDisk": 6009,
      "ĠKlub": 6010,
      "antum": 6011,
      "Ġhukuman": 6012,
      "linya": 6013,
      "Ġperalatan": 6014,
      "ion": 6015,
      "ĠEc": 6016,
      "Ġpang": 6017,
      "ĠNight": 6018,
      "Ġmenimbulkan": 6019,
      "identifikasi": 6020,
      "Ġrok": 6021,
      "ĠAsh": 6022,
      "Ġrute": 6023,
      "ĠYohanes": 6024,
      "Ġapabila": 6025,
      "Ġpelabuhan": 6026,
      "Ġklasik": 6027,
      "Ġmenjalani": 6028,
      "ĠStaf": 6029,
      "ĠST": 6030,
      "rian": 6031,
      "Ġkualifikasi": 6032,
      "Ġment": 6033,
      "ĠGra": 6034,
      "etujui": 6035,
      "ĠQue": 6036,
      "Ġsir": 6037,
      "Ġ1940": 6038,
      "ternatif": 6039,
      "73": 6040,
      "Ġelemen": 6041,
      "Ġdipl": 6042,
      "Ġmuseum": 6043,
      "thophagus": 6044,
      "ugu": 6045,
      "Ġmelindungi": 6046,
      "ĠTingkat": 6047,
      "Ġmaju": 6048,
      "ebaran": 6049,
      "Ġtayang": 6050,
      "urangan": 6051,
      "dwal": 6052,
      "rown": 6053,
      "Ġkakak": 6054,
      "ĠItu": 6055,
      "ormal": 6056,
      "ĠHarry": 6057,
      "Ġdemi": 6058,
      "Ġsepenuhnya": 6059,
      "Ġras": 6060,
      "ĠWay": 6061,
      "72": 6062,
      "Ġmenghancurkan": 6063,
      "abeth": 6064,
      "Ġ70": 6065,
      "Ġberpendapat": 6066,
      "96": 6067,
      "ĠEf": 6068,
      "Ġpil": 6069,
      "Ġeksek": 6070,
      "Ġperguruan": 6071,
      "rin": 6072,
      "ĠPin": 6073,
      "ĠPhilipp": 6074,
      "ambo": 6075,
      "Ġmengakui": 6076,
      "Ġdihar": 6077,
      "100": 6078,
      "ET": 6079,
      "Ġmi": 6080,
      "Ġdivisi": 6081,
      "laman": 6082,
      "ĠLaboratorium": 6083,
      "Ġbiru": 6084,
      "ĠSud": 6085,
      "ĠJl": 6086,
      "Ġmenghubungkan": 6087,
      "adai": 6088,
      "Ġinduk": 6089,
      "ÏĦ": 6090,
      "Ġkualitas": 6091,
      "Ġbesi": 6092,
      "Ġditentukan": 6093,
      "Ġkampanye": 6094,
      "ordin": 6095,
      "atiannya": 6096,
      "Ġsuper": 6097,
      "gag": 6098,
      "ajian": 6099,
      "ejar": 6100,
      "ĠSerbia": 6101,
      "ĠKara": 6102,
      "tai": 6103,
      "Ġmenandatangani": 6104,
      "ulidae": 6105,
      "ikh": 6106,
      "Ġgar": 6107,
      "nia": 6108,
      "Ġtamu": 6109,
      "Ġkeda": 6110,
      "ĠSemen": 6111,
      "Ġpegunungan": 6112,
      "ukt": 6113,
      "ĠVersi": 6114,
      "ĠSimp": 6115,
      "ropis": 6116,
      "Ġpesisir": 6117,
      "Ġtoko": 6118,
      "iano": 6119,
      "aton": 6120,
      "Ġagresif": 6121,
      "Ġjarang": 6122,
      "Ġpenduduknya": 6123,
      "ulusan": 6124,
      "Ġ1948": 6125,
      "ks": 6126,
      "ated": 6127,
      "cy": 6128,
      "Ġgag": 6129,
      "Sh": 6130,
      "RT": 6131,
      "med": 6132,
      "ĠLetkol": 6133,
      "wegia": 6134,
      "ĠLim": 6135,
      "ĠHow": 6136,
      "ĠKun": 6137,
      "mis": 6138,
      "Ġhidupnya": 6139,
      "ents": 6140,
      "Ġpelayanan": 6141,
      "gabungkan": 6142,
      "asket": 6143,
      "NS": 6144,
      "Ġduduk": 6145,
      "Ġtran": 6146,
      "ĠKn": 6147,
      "Ġdarat": 6148,
      "ĠLeague": 6149,
      "Ġdimasuk": 6150,
      "Ġmengklaim": 6151,
      "Ġmengacu": 6152,
      "ĠKart": 6153,
      "Ġpembunuhan": 6154,
      "Ġonline": 6155,
      "Ġremaja": 6156,
      "Ġle": 6157,
      "ĠPD": 6158,
      "ĠAdap": 6159,
      "ĠAdv": 6160,
      "enaran": 6161,
      "ĠMaros": 6162,
      "Ġelektronik": 6163,
      "lywood": 6164,
      "ĠEnc": 6165,
      "ĠKeputusan": 6166,
      "esti": 6167,
      "ĠArmenia": 6168,
      "ĠSumatra": 6169,
      "Ġkeberadaan": 6170,
      "ĠPictures": 6171,
      "Ñģ": 6172,
      "ĠIstana": 6173,
      "Amerika": 6174,
      "ĠBern": 6175,
      "ĠRoman": 6176,
      "adis": 6177,
      "Ġsebagaimana": 6178,
      "ĠEst": 6179,
      "Ġdidukung": 6180,
      "ĠNusantara": 6181,
      "Ġkopi": 6182,
      "score": 6183,
      "Ġperilaku": 6184,
      "ĪĴ": 6185,
      "Ġditempatkan": 6186,
      "Ġteb": 6187,
      "Ġterbanyak": 6188,
      "izinkan": 6189,
      "enan": 6190,
      "ografis": 6191,
      "agama": 6192,
      "elamatan": 6193,
      "ĠCD": 6194,
      "ville": 6195,
      "ĠBritish": 6196,
      "ĠInjil": 6197,
      "ĠTol": 6198,
      "ĠDisney": 6199,
      "bium": 6200,
      "Ġseluas": 6201,
      "urasi": 6202,
      "ĠPemenang": 6203,
      "ĠPublish": 6204,
      "ĠMahkamah": 6205,
      "ĠHi": 6206,
      "ĠRevolusi": 6207,
      "ulunya": 6208,
      "Ġ90": 6209,
      "rica": 6210,
      "awah": 6211,
      "Ġkebudayaan": 6212,
      "ograph": 6213,
      "Ġotomatis": 6214,
      "enian": 6215,
      "jasama": 6216,
      "ĠAssociation": 6217,
      "ĠSeh": 6218,
      "Ġpesan": 6219,
      "Ġsekitarnya": 6220,
      "Ġaturan": 6221,
      "ĠTipulidae": 6222,
      "ĠHulu": 6223,
      "Ġsebab": 6224,
      "eal": 6225,
      "ĠSay": 6226,
      "ĠHotel": 6227,
      "ĠTime": 6228,
      "Ġpengalaman": 6229,
      "Ġraya": 6230,
      "ĠRoyal": 6231,
      "ĠNAS": 6232,
      "Ġcender": 6233,
      "ĠTeam": 6234,
      "Ġtransportasi": 6235,
      "ĠCek": 6236,
      "Ġdisk": 6237,
      "ĠProduksi": 6238,
      "ĠSom": 6239,
      "Ġlangit": 6240,
      "ĠKolonel": 6241,
      "ĠJournal": 6242,
      "ily": 6243,
      "ĠChar": 6244,
      "ats": 6245,
      "ĠKaz": 6246,
      "ĠSastra": 6247,
      "omosi": 6248,
      "Ġrilis": 6249,
      "Ġton": 6250,
      "madiyah": 6251,
      "Ġkejah": 6252,
      "ĠâĢĺ": 6253,
      "Ġkepentingan": 6254,
      "Ġlabel": 6255,
      "Ġwafat": 6256,
      "Ġtempur": 6257,
      "jikan": 6258,
      "ĠJen": 6259,
      "Ġ1961": 6260,
      "Ġrasi": 6261,
      "SI": 6262,
      "Ġsingkat": 6263,
      "osok": 6264,
      "ole": 6265,
      "Ġmundur": 6266,
      "VD": 6267,
      "ĠDec": 6268,
      "ĠGreat": 6269,
      "Ġtangk": 6270,
      "Ġaman": 6271,
      "urg": 6272,
      "Ġliga": 6273,
      "oe": 6274,
      "ahas": 6275,
      "Ġmengumpulkan": 6276,
      "ilidae": 6277,
      "ĠHati": 6278,
      "risis": 6279,
      "Ġkand": 6280,
      "kata": 6281,
      "Ġmaksi": 6282,
      "Ġseksual": 6283,
      "earch": 6284,
      "Ġir": 6285,
      "ĠKongres": 6286,
      "Ġkejahatan": 6287,
      "ĠPortugal": 6288,
      "uck": 6289,
      "ĠProses": 6290,
      "emia": 6291,
      "ĠLinyp": 6292,
      "Ġsituasi": 6293,
      "uhur": 6294,
      "the": 6295,
      "Ġaslinya": 6296,
      "Ġdiperoleh": 6297,
      "Ġprajurit": 6298,
      "ê¦": 6299,
      "atar": 6300,
      "ĠPertan": 6301,
      "wangi": 6302,
      "ĠKebudayaan": 6303,
      "Ġternyata": 6304,
      "ĠMam": 6305,
      "egawai": 6306,
      "ĠEric": 6307,
      "Ġmemerintah": 6308,
      "ĠJim": 6309,
      "hiidae": 6310,
      "Ġ32": 6311,
      "Ġunik": 6312,
      "Ġ1942": 6313,
      "hasil": 6314,
      "Ġkejadian": 6315,
      "benar": 6316,
      "okok": 6317,
      "ĠCha": 6318,
      "testan": 6319,
      "1990": 6320,
      "Ġmengungkapkan": 6321,
      "mos": 6322,
      "Ġefektif": 6323,
      "ĠOut": 6324,
      "onald": 6325,
      "ĠTex": 6326,
      "Ġberganti": 6327,
      "Ġradi": 6328,
      "Ġpermintaan": 6329,
      "Ġsurya": 6330,
      "Ġpendapatan": 6331,
      "Ġni": 6332,
      "ĠManch": 6333,
      "Ġmenet": 6334,
      "uskup": 6335,
      "ekt": 6336,
      "Ġmatematika": 6337,
      "ĠTetapi": 6338,
      "imewa": 6339,
      "Ġcol": 6340,
      "ĠAleks": 6341,
      "Ġcenderung": 6342,
      "Ġ{": 6343,
      "98": 6344,
      "Ġdataran": 6345,
      "tive": 6346,
      "Ġditutup": 6347,
      "ĠLinyphiidae": 6348,
      "Ġmenghabiskan": 6349,
      "ĠBan": 6350,
      "zy": 6351,
      "jin": 6352,
      "Ġdekade": 6353,
      "ĠNav": 6354,
      "Ġsatelit": 6355,
      "Ġkuda": 6356,
      "ĠMycetophilidae": 6357,
      "Ġmengunjungi": 6358,
      "ĠBig": 6359,
      "ĠWid": 6360,
      "Ġkesa": 6361,
      "akuan": 6362,
      "indahan": 6363,
      "Ġdalamnya": 6364,
      "53": 6365,
      "ĠTanggal": 6366,
      "Ġpengganti": 6367,
      "ĠIrak": 6368,
      "Ġtulang": 6369,
      "ĠNabi": 6370,
      "Ġå": 6371,
      "ĠSeo": 6372,
      "Ġmengangkat": 6373,
      "ĠNorwegia": 6374,
      "td": 6375,
      "57": 6376,
      "Ġ36": 6377,
      "Ġkatedral": 6378,
      "Ġsembilan": 6379,
      "tod": 6380,
      "entrasi": 6381,
      "ĠInformasi": 6382,
      "ĠYerusalem": 6383,
      "ĠNap": 6384,
      "Ġparlemen": 6385,
      "Ġbas": 6386,
      "Ġbendera": 6387,
      "OL": 6388,
      "ĠYus": 6389,
      "Ġvolume": 6390,
      "gus": 6391,
      "Ġperb": 6392,
      "aliknya": 6393,
      "mati": 6394,
      "Ġsemuanya": 6395,
      "Ġmemer": 6396,
      "Ġlapisan": 6397,
      "Ġpingg": 6398,
      "ĠPra": 6399,
      "ĠUtsman": 6400,
      "ĠMotor": 6401,
      "ecio": 6402,
      "Ġkarbon": 6403,
      "egisla": 6404,
      "Ġdiakui": 6405,
      "Ġsarana": 6406,
      "ĠNas": 6407,
      "Ġdipindahkan": 6408,
      "sey": 6409,
      "bin": 6410,
      "ĠLalu": 6411,
      "ĠChristian": 6412,
      "enek": 6413,
      "ĠCorporation": 6414,
      "antinya": 6415,
      "ector": 6416,
      "1991": 6417,
      "ĠPerm": 6418,
      "ĠAntar": 6419,
      "ĠJabatan": 6420,
      "Ġrangka": 6421,
      "last": 6422,
      "Ġsisa": 6423,
      "Ġpelatihan": 6424,
      "Ġterjad": 6425,
      "ĠInformation": 6426,
      "ĠGlobal": 6427,
      "ĠBulbophyllum": 6428,
      "Ġdimaksud": 6429,
      "angkabau": 6430,
      "Ġdisiarkan": 6431,
      "Ġ1949": 6432,
      "ĠPala": 6433,
      "ĠNy": 6434,
      "PM": 6435,
      "undurkan": 6436,
      "Ġ1958": 6437,
      "ĠSul": 6438,
      "ayakan": 6439,
      "yclop": 6440,
      "Ġbern": 6441,
      "Ġmengajar": 6442,
      "akti": 6443,
      "siden": 6444,
      "ĠJung": 6445,
      "Ġcok": 6446,
      "angani": 6447,
      "Ġarti": 6448,
      "ĠRat": 6449,
      "eam": 6450,
      "Ġperaturan": 6451,
      "agamaan": 6452,
      "ĠStreet": 6453,
      "ĠBei": 6454,
      "kom": 6455,
      "Ġdimasukkan": 6456,
      "hed": 6457,
      "Ġ1959": 6458,
      "daknya": 6459,
      "nie": 6460,
      "ĠManusia": 6461,
      "IV": 6462,
      "Ġkaya": 6463,
      "Ġteater": 6464,
      "hluk": 6465,
      "ery": 6466,
      "tle": 6467,
      "Ġsensus": 6468,
      "Ġpola": 6469,
      "jemahkan": 6470,
      "ĠGenus": 6471,
      "Ġpredator": 6472,
      "ĠGoogle": 6473,
      "ĠTujuan": 6474,
      "ĠØ": 6475,
      "ÑĤ": 6476,
      "mpan": 6477,
      "Ġkaisar": 6478,
      "Ġkendali": 6479,
      "Ġboleh": 6480,
      "Ġgubernur": 6481,
      "Ġidentitas": 6482,
      "arenakan": 6483,
      "Ġmolek": 6484,
      "under": 6485,
      "ĠLor": 6486,
      "ĠBengk": 6487,
      "ĠPlatnick": 6488,
      "ĠSimon": 6489,
      "SS": 6490,
      "untut": 6491,
      "ĠBatak": 6492,
      "ĠMobil": 6493,
      "hani": 6494,
      "anggu": 6495,
      "ucu": 6496,
      "ĠImam": 6497,
      "raft": 6498,
      "ĠSuara": 6499,
      "ĠTata": 6500,
      "Ġturut": 6501,
      "ĠBob": 6502,
      "arkas": 6503,
      "Ġprinsip": 6504,
      "Ġterbit": 6505,
      "zer": 6506,
      "ĠWa": 6507,
      "Ġbulu": 6508,
      "Ġdewan": 6509,
      "ĠMada": 6510,
      "ĠDewa": 6511,
      "ĠHingga": 6512,
      "ĠPertahanan": 6513,
      "Ġdibunuh": 6514,
      "AP": 6515,
      "Ġkapasitas": 6516,
      "ĠLang": 6517,
      "Ġdinamai": 6518,
      "Ã£": 6519,
      "vari": 6520,
      "ĠSelanjutnya": 6521,
      "wati": 6522,
      "Ġdikeluarkan": 6523,
      "Ġsatuan": 6524,
      "Ġluk": 6525,
      "ĠPenggunaan": 6526,
      "emaat": 6527,
      "Ġ1946": 6528,
      "oner": 6529,
      "Ġpernyataan": 6530,
      "ĠMinangkabau": 6531,
      "Ġtata": 6532,
      "lines": 6533,
      "ĠAmerica": 6534,
      "endalikan": 6535,
      "Ġangin": 6536,
      "ĠManajemen": 6537,
      "otball": 6538,
      "Ġdibu": 6539,
      "Ġinti": 6540,
      "hai": 6541,
      "ĠKl": 6542,
      "essi": 6543,
      "Undang": 6544,
      "Ġtahunan": 6545,
      "ĠAlexander": 6546,
      "ĠDur": 6547,
      "ĠPekan": 6548,
      "ĠModern": 6549,
      "ĠHot": 6550,
      "egaraan": 6551,
      "omunikasi": 6552,
      "ĠAkan": 6553,
      "Ġperlindungan": 6554,
      "vin": 6555,
      "ĠPalestina": 6556,
      "ĠSaudi": 6557,
      "ĠSand": 6558,
      "ĠDok": 6559,
      "Ġhakim": 6560,
      "ĠMart": 6561,
      "Ġditampilkan": 6562,
      "ĠCarex": 6563,
      "ĠPaulus": 6564,
      "ĠNam": 6565,
      "ald": 6566,
      "ĠStand": 6567,
      "Ġbeserta": 6568,
      "ĠMedi": 6569,
      "Ġpenggemar": 6570,
      "Ġsaud": 6571,
      "Ġpendapat": 6572,
      "ĠPed": 6573,
      "Ġsent": 6574,
      "Ġalternatif": 6575,
      "Ġmelaporkan": 6576,
      "endak": 6577,
      "ĠKhusus": 6578,
      "Ġmemperkenalkan": 6579,
      "ĠSut": 6580,
      "ĠPertanian": 6581,
      "jar": 6582,
      "ebaskan": 6583,
      "cast": 6584,
      "Ġbangsawan": 6585,
      "ĠServ": 6586,
      "Ġpenjara": 6587,
      "Ġpuisi": 6588,
      "sih": 6589,
      "Ġrat": 6590,
      "Ġmaskapai": 6591,
      "ĠJadi": 6592,
      "ĠLes": 6593,
      "ehi": 6594,
      "abit": 6595,
      "hadiri": 6596,
      "ĠPand": 6597,
      "ĠPil": 6598,
      "ĠBiografi": 6599,
      "Ġberjarak": 6600,
      "ĠMuhammadiyah": 6601,
      "ĠLive": 6602,
      "ĠTerm": 6603,
      "Ġ×": 6604,
      "off": 6605,
      "ĠYouT": 6606,
      "Ġev": 6607,
      "Ġmengin": 6608,
      "Ġperson": 6609,
      "usulkan": 6610,
      "Ġmeluncurkan": 6611,
      "Ġdibat": 6612,
      "Ġgangguan": 6613,
      "Ġmakam": 6614,
      "ative": 6615,
      "ude": 6616,
      "Ġlawan": 6617,
      "olution": 6618,
      "Ġtepatnya": 6619,
      "endrobium": 6620,
      "ĠSelandia": 6621,
      "unner": 6622,
      "Ġpasti": 6623,
      "ield": 6624,
      "Ġpengadilan": 6625,
      "54": 6626,
      "Ġundang": 6627,
      "Ġsuci": 6628,
      "Ġstabil": 6629,
      "Ġdiciptakan": 6630,
      "Ġlantai": 6631,
      "Ġiklim": 6632,
      "ĠBukit": 6633,
      "Ġtepi": 6634,
      "ĠDrs": 6635,
      "ign": 6636,
      "Ġpulang": 6637,
      "ĠSuriah": 6638,
      "ĠPasifik": 6639,
      "amer": 6640,
      "Ġindependen": 6641,
      "Ġbertujuan": 6642,
      "Ġekor": 6643,
      "Ãº": 6644,
      "ubang": 6645,
      "68": 6646,
      "ĠCast": 6647,
      "ĠAkibat": 6648,
      "zon": 6649,
      "ĠKot": 6650,
      "ĠProtestan": 6651,
      "ĠMenengah": 6652,
      "sesan": 6653,
      "semb": 6654,
      "ĠProfil": 6655,
      "Ġperingatan": 6656,
      "ĠParlemen": 6657,
      "indung": 6658,
      "ĠSis": 6659,
      "lex": 6660,
      "Ġpenerbit": 6661,
      "Ġ1920": 6662,
      "Ġstadion": 6663,
      "ariat": 6664,
      "ocok": 6665,
      "Ġseniman": 6666,
      "ax": 6667,
      "ĠDewi": 6668,
      "arke": 6669,
      "Ġlepas": 6670,
      "Ġsetidaknya": 6671,
      "Ġdilaporkan": 6672,
      "Ġpedagang": 6673,
      "elop": 6674,
      "zah": 6675,
      "upu": 6676,
      "ĠHay": 6677,
      "OC": 6678,
      "ette": 6679,
      "Ġfokus": 6680,
      "ĠHasan": 6681,
      "caraba": 6682,
      "ĠPortugis": 6683,
      "udy": 6684,
      "51": 6685,
      "olar": 6686,
      "ĠKak": 6687,
      "car": 6688,
      "efinisikan": 6689,
      "enangkan": 6690,
      "Ġtakhta": 6691,
      "ejak": 6692,
      "eyak": 6693,
      "ĠUnit": 6694,
      "Ġarsitektur": 6695,
      "52": 6696,
      "Ġdinding": 6697,
      "ormati": 6698,
      "pun": 6699,
      "Ġ978": 6700,
      "Ġdampak": 6701,
      "atri": 6702,
      "Ġuskup": 6703,
      "ĠProduc": 6704,
      "astikan": 6705,
      "á¹": 6706,
      "Ġdialek": 6707,
      "ĠPasal": 6708,
      "Ġdifusi": 6709,
      "Ġmemerintahkan": 6710,
      "ĠBurung": 6711,
      "left": 6712,
      "chus": 6713,
      "Ġ1947": 6714,
      "Ġungg": 6715,
      "Ġmunisipalitas": 6716,
      "ukkan": 6717,
      "ĠBabak": 6718,
      "hadi": 6719,
      "epaskan": 6720,
      "ĠPutih": 6721,
      "oyo": 6722,
      "Ġaspek": 6723,
      "Indonesia": 6724,
      "Ä«": 6725,
      "Ġpul": 6726,
      "Ġdisa": 6727,
      "Ġpersegi": 6728,
      "esua": 6729,
      "Ġmengarah": 6730,
      "aminya": 6731,
      "Ġmenceritakan": 6732,
      "ĠSebelumnya": 6733,
      "PK": 6734,
      "Ġmenghindari": 6735,
      "ewar": 6736,
      "wijaya": 6737,
      "ĠDong": 6738,
      "ĠKudus": 6739,
      "ĠState": 6740,
      "ĠPolri": 6741,
      "Ġ1957": 6742,
      "Ġlukisan": 6743,
      "entuan": 6744,
      "empor": 6745,
      "Ġmenekan": 6746,
      "ovasi": 6747,
      "ĠApp": 6748,
      "Ġil": 6749,
      "ader": 6750,
      "ensus": 6751,
      "Ġinternet": 6752,
      "ancang": 6753,
      "wara": 6754,
      "ĠScaraba": 6755,
      "ticidae": 6756,
      "ĠSalticidae": 6757,
      "Ġsatunya": 6758,
      "ĠLen": 6759,
      "ĠStan": 6760,
      "Ġrangkaian": 6761,
      "ĠSap": 6762,
      "Ġseja": 6763,
      "olaborasi": 6764,
      "Ġsil": 6765,
      "Ġkematiannya": 6766,
      "ĠIsland": 6767,
      "ĠBre": 6768,
      "ĠGood": 6769,
      "Ġtiap": 6770,
      "bawa": 6771,
      "ĠNovel": 6772,
      "aktor": 6773,
      "opa": 6774,
      "awas": 6775,
      "kuit": 6776,
      "tag": 6777,
      "Ã¼r": 6778,
      "Ġtem": 6779,
      "ĠVo": 6780,
      "Ġkering": 6781,
      "Ġdrum": 6782,
      "ĠPengembangan": 6783,
      "ĠBandara": 6784,
      "Ġsambil": 6785,
      "ĠÂ°": 6786,
      "led": 6787,
      "Ġkeuntungan": 6788,
      "ĠEnglish": 6789,
      "Ġpengusaha": 6790,
      "Ġalign": 6791,
      "2023": 6792,
      "epakatan": 6793,
      "ĠReal": 6794,
      "Ġperak": 6795,
      "Ġmenentang": 6796,
      "anggar": 6797,
      "Ġterjadinya": 6798,
      "ĠDaya": 6799,
      "aster": 6800,
      "ekuensi": 6801,
      "dirinya": 6802,
      "elle": 6803,
      "Ġbalik": 6804,
      "Ġ1956": 6805,
      "ĠChic": 6806,
      "pert": 6807,
      "istribusi": 6808,
      "Ġatlet": 6809,
      "UN": 6810,
      "ĠPerguruan": 6811,
      "won": 6812,
      "Ġmenikahi": 6813,
      "tivis": 6814,
      "iset": 6815,
      "embah": 6816,
      "Ġperl": 6817,
      "Ġarus": 6818,
      "isual": 6819,
      "ĠSinopsis": 6820,
      "cc": 6821,
      "ĠMos": 6822,
      "Ġdibawah": 6823,
      "ĠPondok": 6824,
      "ingkan": 6825,
      "ĠDemografi": 6826,
      "Ġdaratan": 6827,
      "Ġmengal": 6828,
      "ilasi": 6829,
      "ĠAirlines": 6830,
      "Ð¾Ð": 6831,
      "Ġkekerasan": 6832,
      "ĠJambi": 6833,
      "Ġeng": 6834,
      "gerakan": 6835,
      "Ġmemuat": 6836,
      "ĠLingkungan": 6837,
      "rary": 6838,
      "ose": 6839,
      "ĠHit": 6840,
      "akaman": 6841,
      "esmikan": 6842,
      "jan": 6843,
      "Ġher": 6844,
      "AF": 6845,
      "rang": 6846,
      "ede": 6847,
      "1989": 6848,
      "ĠNazi": 6849,
      "ĠYa": 6850,
      "Ġbenteng": 6851,
      "oso": 6852,
      "ĠFe": 6853,
      "Ġruangan": 6854,
      "tidak": 6855,
      "umpul": 6856,
      "ĠMayor": 6857,
      "odo": 6858,
      "ĠKeuangan": 6859,
      "ison": 6860,
      "ĠDim": 6861,
      "faat": 6862,
      "ante": 6863,
      "ĠSebelah": 6864,
      "lag": 6865,
      "ĠDam": 6866,
      "Ġmetal": 6867,
      "Ġbertindak": 6868,
      "egoro": 6869,
      "ĠKomando": 6870,
      "inci": 6871,
      "Ġpajak": 6872,
      "ĠMaster": 6873,
      "ĠBlo": 6874,
      "Ġmengakhiri": 6875,
      "eau": 6876,
      "Ġmelainkan": 6877,
      "Ġasi": 6878,
      "adapan": 6879,
      "jaran": 6880,
      "ĠBooks": 6881,
      "anggapan": 6882,
      "--": 6883,
      "ĠSoest": 6884,
      "64": 6885,
      "Ġ300": 6886,
      "ittle": 6887,
      "Ġkaryanya": 6888,
      "ekatan": 6889,
      "entar": 6890,
      "ĠAkhirnya": 6891,
      "ĠCons": 6892,
      "Ġkejuaraan": 6893,
      "Ġdulu": 6894,
      "view": 6895,
      "wo": 6896,
      "ragon": 6897,
      "Ġpam": 6898,
      "Ġjantung": 6899,
      "todoks": 6900,
      "Ġberpori": 6901,
      "acing": 6902,
      "utip": 6903,
      "Ġu": 6904,
      "ĠLy": 6905,
      "Ġdokumen": 6906,
      "OR": 6907,
      "Ġelektron": 6908,
      "Th": 6909,
      "Ġpep": 6910,
      "Ġkartu": 6911,
      "des": 6912,
      "Ġkuliah": 6913,
      "Ġvirus": 6914,
      "Ġberlokasi": 6915,
      "Ġaku": 6916,
      "ense": 6917,
      "ĠCas": 6918,
      "Ġrest": 6919,
      "ĠPertandingan": 6920,
      "RMS": 6921,
      "Ġdiganti": 6922,
      "Ġtelur": 6923,
      "IA": 6924,
      "arjo": 6925,
      "urch": 6926,
      "Ġrekor": 6927,
      "Ġnyata": 6928,
      "ĠScarabaeidae": 6929,
      "Ġpelaksanaan": 6930,
      "Ġpensiun": 6931,
      "IB": 6932,
      "ĠWes": 6933,
      "egrasi": 6934,
      "ĠSK": 6935,
      "Ġmenutup": 6936,
      "ĠMars": 6937,
      "Ġdisingkat": 6938,
      "egislatif": 6939,
      "ĠSya": 6940,
      "Ġmakanannya": 6941,
      "ĠRoh": 6942,
      "ĠFut": 6943,
      "92": 6944,
      "ĠTari": 6945,
      "ĠSinetron": 6946,
      "ates": 6947,
      "ĠVik": 6948,
      "Ġdirek": 6949,
      "Ġ1944": 6950,
      "seperti": 6951,
      "Ġhip": 6952,
      "Ġkertas": 6953,
      "araf": 6954,
      "ĠCup": 6955,
      "Ġprop": 6956,
      "ĠPrinc": 6957,
      "ĠHakim": 6958,
      "del": 6959,
      "ĠToy": 6960,
      "ĠTam": 6961,
      "ĠBor": 6962,
      "Ġtergantung": 6963,
      "Ġdinamakan": 6964,
      "ancangan": 6965,
      "ĠYouTube": 6966,
      "'t": 6967,
      "ĠDuk": 6968,
      "uktikan": 6969,
      "Ġprotein": 6970,
      "ĠTay": 6971,
      "âŃĲ": 6972,
      "ĠPBB": 6973,
      "ĠOper": 6974,
      "Ġdikarenakan": 6975,
      "Ġberpengaruh": 6976,
      "Ġmeneg": 6977,
      "siko": 6978,
      "ĠRy": 6979,
      "arai": 6980,
      "Ġformat": 6981,
      "Ġtampaknya": 6982,
      "ĠPok": 6983,
      "Ġperkebunan": 6984,
      "ĠHanya": 6985,
      "Ġterkadang": 6986,
      "Ġmenyelamatkan": 6987,
      "met": 6988,
      "Ġjembatan": 6989,
      "ature": 6990,
      "ĠStatistik": 6991,
      "ĠAwalnya": 6992,
      "embalikan": 6993,
      "otaan": 6994,
      "Ġmakhluk": 6995,
      "Îµ": 6996,
      "ĠWis": 6997,
      "Ġanalisis": 6998,
      "87": 6999,
      "Ã¢": 7000,
      "Ġhiburan": 7001,
      "Ġmes": 7002,
      "Ġinsting": 7003,
      "eff": 7004,
      "ĠAbad": 7005,
      "akkan": 7006,
      "Ġiklan": 7007,
      "Ġmengundurkan": 7008,
      "1988": 7009,
      "Ġberhar": 7010,
      "Ġskala": 7011,
      "ĠWoRMS": 7012,
      "Ġminim": 7013,
      "ĠFisi": 7014,
      "onj": 7015,
      "ritik": 7016,
      "ĠDit": 7017,
      "ĠWales": 7018,
      "Ġciri": 7019,
      "ĠPenelitian": 7020,
      "ĠGolden": 7021,
      "Ã£o": 7022,
      "ĠCarol": 7023,
      "ĠKro": 7024,
      "Ġgagasan": 7025,
      "Ġ33": 7026,
      "Ġimam": 7027,
      "Ġkeagamaan": 7028,
      "ĠDal": 7029,
      "Ġdanau": 7030,
      "harma": 7031,
      "Ġlanda": 7032,
      "ullah": 7033,
      "lakukan": 7034,
      "ĠHus": 7035,
      "field": 7036,
      "Ġ1955": 7037,
      "awang": 7038,
      "rys": 7039,
      "ĠPeraturan": 7040,
      "ĠCont": 7041,
      "iaan": 7042,
      "Ġmelah": 7043,
      "itter": 7044,
      "ĠDiskografi": 7045,
      "Ġlangkah": 7046,
      "Ġkoleksi": 7047,
      "ĠProject": 7048,
      "abad": 7049,
      "ĠGeorgia": 7050,
      "Ġsejarawan": 7051,
      "Ġmau": 7052,
      "lia": 7053,
      "Ġlel": 7054,
      "Ġkuil": 7055,
      "Ġpatung": 7056,
      "ĠShah": 7057,
      "ĠMang": 7058,
      "Ġmenangkap": 7059,
      "ĠSamudra": 7060,
      "Ġpelatih": 7061,
      "ĠDor": 7062,
      "Ġend": 7063,
      "emuka": 7064,
      "Ġangkasa": 7065,
      "Ġpembawa": 7066,
      "Car": 7067,
      "perim": 7068,
      "ĠPanjang": 7069,
      "orth": 7070,
      "ĠPendiri": 7071,
      "dominasi": 7072,
      "idur": 7073,
      "Ġgelap": 7074,
      "saan": 7075,
      "ĠAndre": 7076,
      "lon": 7077,
      "Ġparuh": 7078,
      "Ġgolongan": 7079,
      "ĠPower": 7080,
      "ĠBentuk": 7081,
      "ĠPres": 7082,
      "ejala": 7083,
      "Ġph": 7084,
      "apus": 7085,
      "Ġsuka": 7086,
      "Ġmikro": 7087,
      "Ġputranya": 7088,
      "DA": 7089,
      "ungkan": 7090,
      "Ġpand": 7091,
      "ropolitan": 7092,
      "ĠOri": 7093,
      "ĠSurakarta": 7094,
      "Ġnegatif": 7095,
      "ĠKomunis": 7096,
      "ĠGold": 7097,
      "ankan": 7098,
      "ĠBahkan": 7099,
      "ugaskan": 7100,
      "Ġpado": 7101,
      "Ġkolonial": 7102,
      "ĠWang": 7103,
      "Ġsiaran": 7104,
      "Ġmengaw": 7105,
      "ĠKop": 7106,
      "ĠLev": 7107,
      "ĠEncyclop": 7108,
      "Ġdisel": 7109,
      "lusi": 7110,
      "ahit": 7111,
      "ustin": 7112,
      "ĠMata": 7113,
      "och": 7114,
      "Ġtek": 7115,
      "Ġsiap": 7116,
      "mann": 7117,
      "ĠBroad": 7118,
      "ajat": 7119,
      "ĠFasilitas": 7120,
      "Ġmusisi": 7121,
      "alas": 7122,
      "ĠIkan": 7123,
      "ĠResearch": 7124,
      "Ġbandara": 7125,
      "Ġcomp": 7126,
      "Ġmembaca": 7127,
      "ĠAbdullah": 7128,
      "âĪĴ": 7129,
      "ĠHor": 7130,
      "Ġlok": 7131,
      "Ġinilah": 7132,
      "ĠDayak": 7133,
      "97": 7134,
      "ocal": 7135,
      "ĠDet": 7136,
      "akia": 7137,
      "elenggaraan": 7138,
      "gung": 7139,
      "ĠNetwork": 7140,
      "bus": 7141,
      "Ġseminggu": 7142,
      "ontalo": 7143,
      "ĠScience": 7144,
      "Ġmengajukan": 7145,
      "ĠPekerja": 7146,
      "ektorat": 7147,
      "Ġdipengaruhi": 7148,
      "ĠKum": 7149,
      "á»": 7150,
      "ĠRama": 7151,
      "Ġmedis": 7152,
      "asihat": 7153,
      "%,": 7154,
      "ĠRaf": 7155,
      "Ġdll": 7156,
      "eluk": 7157,
      "Pro": 7158,
      "ĠMoham": 7159,
      "Ġsarjana": 7160,
      "icu": 7161,
      "Ġanjing": 7162,
      "untuk": 7163,
      "inggalan": 7164,
      "Ġkeinginan": 7165,
      "Ġserangkaian": 7166,
      "ally": 7167,
      "Ġkritikus": 7168,
      "gy": 7169,
      "Ġsemacam": 7170,
      "ĠPhil": 7171,
      "ots": 7172,
      "ambu": 7173,
      "idah": 7174,
      "ĠTechn": 7175,
      "intasi": 7176,
      "ĠSMK": 7177,
      "ĠEliz": 7178,
      "Ġmelahirkan": 7179,
      "apal": 7180,
      "ĠSav": 7181,
      "ĠSik": 7182,
      "mais": 7183,
      "Ġmenyadari": 7184,
      "iarkan": 7185,
      "Ġroda": 7186,
      "well": 7187,
      "Ġrisiko": 7188,
      "try": 7189,
      "mah": 7190,
      "ĠMisalnya": 7191,
      "Ġgugur": 7192,
      "ĠKang": 7193,
      "Ġ*": 7194,
      "ĠLima": 7195,
      "ĠLeon": 7196,
      "ĠKapten": 7197,
      "ĠMeski": 7198,
      "ategis": 7199,
      "elat": 7200,
      "egr": 7201,
      "ft": 7202,
      "eptunus": 7203,
      "ĠCel": 7204,
      "ĠRail": 7205,
      "nah": 7206,
      "ĠChicago": 7207,
      "ĠAyat": 7208,
      "ĠSC": 7209,
      "ĠGame": 7210,
      "ĠAsosiasi": 7211,
      "Ġkucing": 7212,
      "Ġmembu": 7213,
      "ĠDream": 7214,
      "ĠGh": 7215,
      "ador": 7216,
      "Ġ1941": 7217,
      "Ġpemuda": 7218,
      "%)": 7219,
      "Ġbayi": 7220,
      "ĠEnd": 7221,
      "EC": 7222,
      "ets": 7223,
      "je": 7224,
      "ostolik": 7225,
      "Ġilmuwan": 7226,
      "ĠPublic": 7227,
      "Ġeksekutif": 7228,
      "wu": 7229,
      "ekh": 7230,
      "Ġmenempatkan": 7231,
      "Ġsimp": 7232,
      "Ġsuaminya": 7233,
      "ĠBeijing": 7234,
      "Ġdirektur": 7235,
      "Ġtelepon": 7236,
      "Ġpasal": 7237,
      "ĠChris": 7238,
      "Ġpromosi": 7239,
      "ĠHarv": 7240,
      "Ġpal": 7241,
      "elasan": 7242,
      "Si": 7243,
      "wat": 7244,
      "PU": 7245,
      "ĠAla": 7246,
      "ĠOli": 7247,
      "orejo": 7248,
      "Ġtemp": 7249,
      "lahirkan": 7250,
      "ĠEver": 7251,
      "heim": 7252,
      "ĠPanglima": 7253,
      "Ġgempa": 7254,
      "ĠStory": 7255,
      "bour": 7256,
      "ĠSari": 7257,
      "ĠKawasan": 7258,
      "ift": 7259,
      "Ġgigi": 7260,
      "ĠAlbert": 7261,
      "Ġmendek": 7262,
      "ĠJupiter": 7263,
      "Ac": 7264,
      "mond": 7265,
      "Ġpembuat": 7266,
      "93": 7267,
      "Ġberkuasa": 7268,
      "Ġmemanfaatkan": 7269,
      "84": 7270,
      "rut": 7271,
      "rem": 7272,
      "unting": 7273,
      "94": 7274,
      "Ġlak": 7275,
      "Ġsapi": 7276,
      "ĠPhilippine": 7277,
      "Ġpengikut": 7278,
      "Ġsiapa": 7279,
      "Ġkre": 7280,
      "Ġselamat": 7281,
      "aksasa": 7282,
      "Ġtersisa": 7283,
      "etail": 7284,
      "ÙĬ": 7285,
      "encanaan": 7286,
      "ĠPengadilan": 7287,
      "ĠSoekar": 7288,
      "isensi": 7289,
      "Is": 7290,
      "orts": 7291,
      "karya": 7292,
      "ĠBook": 7293,
      "Ġfot": 7294,
      "rie": 7295,
      "elahan": 7296,
      "Ġmedan": 7297,
      "Ġmenetap": 7298,
      "Ùİ": 7299,
      "Ġhttps": 7300,
      "Ġmembat": 7301,
      "Ġberlanjut": 7302,
      "Ġmenyebar": 7303,
      "ST": 7304,
      "Ġpres": 7305,
      "ĠWilliams": 7306,
      "ĠWaktu": 7307,
      "ĠPegunungan": 7308,
      "ĠCho": 7309,
      "lian": 7310,
      "Ġdipercaya": 7311,
      "ĠPu": 7312,
      "ĠAlas": 7313,
      "ĠHeart": 7314,
      "ĠPersatuan": 7315,
      "ĠPerpustakaan": 7316,
      "Ġdiplomat": 7317,
      "isisi": 7318,
      "1987": 7319,
      "imbang": 7320,
      "Ġaksara": 7321,
      "Ġmenderita": 7322,
      "ĠTerminal": 7323,
      "ĠFox": 7324,
      "62": 7325,
      "enario": 7326,
      "ther": 7327,
      "ĠRod": 7328,
      "ĠKus": 7329,
      "Ġdiduga": 7330,
      "iawan": 7331,
      "Ġmenghar": 7332,
      "olan": 7333,
      "ĠProyek": 7334,
      "ĠYon": 7335,
      "ĠCin": 7336,
      "nik": 7337,
      "elolaan": 7338,
      "ĠKonstitusi": 7339,
      "ĠSolo": 7340,
      "jun": 7341,
      "ĠWebsite": 7342,
      "Ġhadiah": 7343,
      "Ġpasien": 7344,
      "Ġperannya": 7345,
      "ĠIndo": 7346,
      "ĠGames": 7347,
      "Ġ1954": 7348,
      "Ġ1952": 7349,
      "caman": 7350,
      "Ġterkemuka": 7351,
      "ĠLas": 7352,
      "Ġlirik": 7353,
      "organ": 7354,
      "ĠWik": 7355,
      "ilangkan": 7356,
      "Ġpl": 7357,
      "ĠKuala": 7358,
      "ĠTexas": 7359,
      "ĠIstri": 7360,
      "Ùħ": 7361,
      "Ġrumput": 7362,
      "Ġarmada": 7363,
      "lasifikasi": 7364,
      "ĠGorontalo": 7365,
      "ĠTegal": 7366,
      "81": 7367,
      "yaan": 7368,
      "ĠPalembang": 7369,
      "ĠSakit": 7370,
      "ishi": 7371,
      "elilingi": 7372,
      "rum": 7373,
      "Ġanaknya": 7374,
      "ĠKarl": 7375,
      "ĠPeristiwa": 7376,
      "onto": 7377,
      "ĠMahasiswa": 7378,
      "hu": 7379,
      "Ġ1939": 7380,
      "Ġkebebasan": 7381,
      "Ġminuman": 7382,
      "Ġpelajaran": 7383,
      "ĠMovie": 7384,
      "ĠCorn": 7385,
      "Ġterin": 7386,
      "ĠEug": 7387,
      "Ġrambut": 7388,
      "ĠPeran": 7389,
      "ambaran": 7390,
      "ĠLibrary": 7391,
      "ĠMati": 7392,
      "ĠWir": 7393,
      "Ġkeuskupan": 7394,
      "Ġsuami": 7395,
      "Ġdebutnya": 7396,
      "vo": 7397,
      "ĠSara": 7398,
      "La": 7399,
      "rain": 7400,
      "ĠPerubahan": 7401,
      "91": 7402,
      "anaan": 7403,
      "Ġsetahun": 7404,
      "ĠOnthophagus": 7405,
      "ĠFound": 7406,
      "Ġfilsafat": 7407,
      "lama": 7408,
      "ĠJun": 7409,
      "ĠElizabeth": 7410,
      "Ġit": 7411,
      "ĠFirst": 7412,
      "dar": 7413,
      "Ġmeyak": 7414,
      "ĠGil": 7415,
      "ĠColumb": 7416,
      "entangan": 7417,
      "ĠJr": 7418,
      "',": 7419,
      "ĠOm": 7420,
      "ĠAsp": 7421,
      "eed": 7422,
      "seud": 7423,
      "ques": 7424,
      "ĠLtd": 7425,
      "enom": 7426,
      "low": 7427,
      "ĠMaskapai": 7428,
      "Ġplatform": 7429,
      "Ġsikap": 7430,
      "ĠJat": 7431,
      "ture": 7432,
      "ĠOrtodoks": 7433,
      "wajib": 7434,
      "Ġkamar": 7435,
      "ĠScott": 7436,
      "ĠKul": 7437,
      "ĠLapangan": 7438,
      "67": 7439,
      "anggang": 7440,
      "ĠCode": 7441,
      "ĠVirgin": 7442,
      "ĠBrown": 7443,
      "ĠGel": 7444,
      "Ġizin": 7445,
      "Ġgraf": 7446,
      "opter": 7447,
      "Ġsetuju": 7448,
      "ĠTerl": 7449,
      "Ġditambahkan": 7450,
      "Ġdetik": 7451,
      "IP": 7452,
      "ĠPesantren": 7453,
      "pu": 7454,
      "Ġtari": 7455,
      "Ġletak": 7456,
      "ĠJuga": 7457,
      "NC": 7458,
      "maisuri": 7459,
      "Ġkeenam": 7460,
      "Ġmenghentikan": 7461,
      "ĠBata": 7462,
      "uro": 7463,
      "ĠYud": 7464,
      "Ġmenak": 7465,
      "ublic": 7466,
      "ebihan": 7467,
      "Ġbaja": 7468,
      "Ġ1953": 7469,
      "onya": 7470,
      "imat": 7471,
      "Ġmakna": 7472,
      "ops": 7473,
      "ĠPolisi": 7474,
      "ĠVolume": 7475,
      "Ġsehar": 7476,
      "ĠCara": 7477,
      "ĠLayanan": 7478,
      "Ġperjuangan": 7479,
      "odes": 7480,
      "Ġmena": 7481,
      "xi": 7482,
      "ĠTerb": 7483,
      "ĠShang": 7484,
      "Ġpid": 7485,
      "Ġnasi": 7486,
      "ĠBBC": 7487,
      "Ġadap": 7488,
      "juga": 7489,
      "rav": 7490,
      "Ġmenyerahkan": 7491,
      "ĠTeori": 7492,
      "dur": 7493,
      "ĠWood": 7494,
      "otik": 7495,
      "asakan": 7496,
      "ĠBell": 7497,
      "ĠMuk": 7498,
      "tab": 7499,
      "ĠCommun": 7500,
      "inder": 7501,
      "ĠMilan": 7502,
      "ĠKetiga": 7503,
      "onfir": 7504,
      "Ġulama": 7505,
      "Ġtidur": 7506,
      "ĠTangerang": 7507,
      "ĠBalai": 7508,
      "ĠSn": 7509,
      "ĠSip": 7510,
      "Ġ1951": 7511,
      "adangan": 7512,
      "lavia": 7513,
      "Ġrahasia": 7514,
      "alk": 7515,
      "Ġmenara": 7516,
      "Ġvs": 7517,
      "1986": 7518,
      "ÏĤ": 7519,
      "eki": 7520,
      "ĠDVD": 7521,
      "83": 7522,
      "Ġdinasti": 7523,
      "Ġzat": 7524,
      "Ġ1943": 7525,
      "ĠÄ": 7526,
      "ganegaraan": 7527,
      "ument": 7528,
      "eligi": 7529,
      "Ġdimak": 7530,
      "umania": 7531,
      "Ġberpindah": 7532,
      "overn": 7533,
      "ĠSutradara": 7534,
      "ĠLah": 7535,
      "Ġdo": 7536,
      "Ġdiatur": 7537,
      "utaan": 7538,
      "yana": 7539,
      "pi": 7540,
      "ulitan": 7541,
      "Ġalk": 7542,
      "bungan": 7543,
      "ĠArm": 7544,
      "Ġmolekul": 7545,
      "Ġpencipta": 7546,
      "Ġintel": 7547,
      "ĠPek": 7548,
      "light": 7549,
      "ĠBy": 7550,
      "utasi": 7551,
      "ĠChin": 7552,
      "Ġwajah": 7553,
      "Ġsahabat": 7554,
      "Ġdilahirkan": 7555,
      "ido": 7556,
      "ĠJKT": 7557,
      "reg": 7558,
      "lasemen": 7559,
      "61": 7560,
      "adaptasi": 7561,
      "ĠSE": 7562,
      "ĠAdapun": 7563,
      "Ġkunci": 7564,
      "Ġisi": 7565,
      "Ġsejenis": 7566,
      "udak": 7567,
      "ĠPerh": 7568,
      "pura": 7569,
      "Ġkedudukan": 7570,
      "ajuan": 7571,
      "ilikan": 7572,
      "ĠSekitar": 7573,
      "antau": 7574,
      "ecial": 7575,
      "Ġterjun": 7576,
      "ulum": 7577,
      "Ġkg": 7578,
      "esian": 7579,
      "ĠOpen": 7580,
      "Ġbergantung": 7581,
      "udal": 7582,
      "barkan": 7583,
      "Ġsyarat": 7584,
      "ane": 7585,
      "ĠGeneral": 7586,
      "Ġkepadanya": 7587,
      "enggarakan": 7588,
      "ĠWhite": 7589,
      "itungan": 7590,
      "Ġnormal": 7591,
      "ĠYeh": 7592,
      "angkut": 7593,
      "gg": 7594,
      "oides": 7595,
      "ubur": 7596,
      "ĠTemp": 7597,
      "ĠKontes": 7598,
      "UM": 7599,
      "elur": 7600,
      "ĠStruktur": 7601,
      "anker": 7602,
      "ĠBatang": 7603,
      "ĠCi": 7604,
      "ĠWangsa": 7605,
      "Ġberturut": 7606,
      "Ġaset": 7607,
      "Ġagak": 7608,
      "ĠRog": 7609,
      "utus": 7610,
      "ĠMatahari": 7611,
      "Ġdisimpan": 7612,
      "wancara": 7613,
      "Ġhabit": 7614,
      "Ġlulusan": 7615,
      "ĠBudi": 7616,
      "ĠPier": 7617,
      "Ġdiken": 7618,
      "elm": 7619,
      "tarikan": 7620,
      "Ġmembayar": 7621,
      "Ġtun": 7622,
      "ĠSent": 7623,
      "erahan": 7624,
      "Ġkesepakatan": 7625,
      "anteri": 7626,
      "sed": 7627,
      "ĠChann": 7628,
      "uary": 7629,
      "erankan": 7630,
      "Ġagen": 7631,
      "htm": 7632,
      "Ġbukanlah": 7633,
      "ves": 7634,
      "imi": 7635,
      "ĠSeg": 7636,
      "ĠTu": 7637,
      "Ġsite": 7638,
      "jung": 7639,
      "ÙĨ": 7640,
      "Ġmempengaruhi": 7641,
      "\"),": 7642,
      "ĠSig": 7643,
      "ĠRid": 7644,
      "OM": 7645,
      "VID": 7646,
      "ĠDKI": 7647,
      "ekolah": 7648,
      "ilat": 7649,
      "dengan": 7650,
      "ĠChen": 7651,
      "ĠEmpat": 7652,
      "],": 7653,
      "dney": 7654,
      "ĠPost": 7655,
      "ĠFinlandia": 7656,
      "Ġmendengar": 7657,
      "Ġpenut": 7658,
      "anyaan": 7659,
      "con": 7660,
      "Ġmenger": 7661,
      "ĠAdministrasi": 7662,
      "Ġditambah": 7663,
      "82": 7664,
      "ĠBug": 7665,
      "stensi": 7666,
      "Ġbakteri": 7667,
      "ĠMinggu": 7668,
      "jam": 7669,
      "LA": 7670,
      "zhou": 7671,
      "ĠReview": 7672,
      "egat": 7673,
      "Ġpadat": 7674,
      "baiki": 7675,
      "annes": 7676,
      "ĠLebih": 7677,
      "uncuran": 7678,
      "\").": 7679,
      "ecil": 7680,
      "ĠCerita": 7681,
      "ĠDendrobium": 7682,
      "ĠHistor": 7683,
      "ĠJurusan": 7684,
      "antis": 7685,
      "ĠCentral": 7686,
      "onegoro": 7687,
      "Ġmemerlukan": 7688,
      "meng": 7689,
      "ĠWork": 7690,
      "ĠKenn": 7691,
      "ĠSound": 7692,
      "ĠTapi": 7693,
      "Ġpagi": 7694,
      "RA": 7695,
      "Ġbalap": 7696,
      "Ġditerapkan": 7697,
      "Ġkonstruksi": 7698,
      "ĠDinas": 7699,
      "Ġæ": 7700,
      "Ġkontroversi": 7701,
      "ĠSev": 7702,
      "ĠPembalap": 7703,
      "Ġtarget": 7704,
      "Ġteknis": 7705,
      "ĠMend": 7706,
      "Ġzona": 7707,
      "agan": 7708,
      "Ġkepadatan": 7709,
      "Ġikatan": 7710,
      "Ġmenyelenggarakan": 7711,
      "Ġmengirimkan": 7712,
      "etika": 7713,
      "ĠLiv": 7714,
      "ĠHad": 7715,
      "Ġá": 7716,
      "Ġso": 7717,
      "ĠHidup": 7718,
      "usik": 7719,
      "Ġliter": 7720,
      "Ġgula": 7721,
      "upsi": 7722,
      "ĠRoad": 7723,
      "usir": 7724,
      "ĠFrancisco": 7725,
      "endam": 7726,
      "Ġayam": 7727,
      "Ġsebaga": 7728,
      "oskop": 7729,
      "Ġhotel": 7730,
      "tiga": 7731,
      "Ġgampong": 7732,
      "Ġsim": 7733,
      "Ġhom": 7734,
      "ĠFort": 7735,
      "ĠDigital": 7736,
      "ĠLem": 7737,
      "abet": 7738,
      "ä¸": 7739,
      "ĠBeng": 7740,
      "estik": 7741,
      "IM": 7742,
      "ĠUtsmaniyah": 7743,
      "Ġkari": 7744,
      "Ġdikalahkan": 7745,
      "ĠZaman": 7746,
      "ĠBung": 7747,
      "Ġmengalir": 7748,
      "lip": 7749,
      "Ġinstr": 7750,
      "ĠPus": 7751,
      "ĠStudies": 7752,
      "63": 7753,
      "Ġterbaru": 7754,
      "Ġtropis": 7755,
      "Ġlip": 7756,
      "Ġkekalahan": 7757,
      "variasi": 7758,
      "Ġkomandan": 7759,
      "ĠSenecio": 7760,
      "ĠCour": 7761,
      "ĠOf": 7762,
      "ĠLew": 7763,
      "ĠLain": 7764,
      "Ġbir": 7765,
      "Ġperayaan": 7766,
      "Ġpembukaan": 7767,
      "coba": 7768,
      "deb": 7769,
      "ĠSas": 7770,
      "ĠHis": 7771,
      "enting": 7772,
      "SD": 7773,
      "ĠYak": 7774,
      "Ġmemasukkan": 7775,
      "artawan": 7776,
      "inga": 7777,
      "ĠGall": 7778,
      "Ġreal": 7779,
      "ĠPhy": 7780,
      "Ġbulat": 7781,
      "ĠSeluruh": 7782,
      "Ġdikelola": 7783,
      "ederasi": 7784,
      "nak": 7785,
      "Ġkekaisaran": 7786,
      "Ġpegawai": 7787,
      "Ġsepeda": 7788,
      "Ġbeliau": 7789,
      "etujuan": 7790,
      "Ġperbu": 7791,
      "ĠShar": 7792,
      "sat": 7793,
      "Ġpunya": 7794,
      "ĠLog": 7795,
      "ista": 7796,
      "Ġdiaj": 7797,
      "ihir": 7798,
      "atikan": 7799,
      "ĠNaskah": 7800,
      "yakini": 7801,
      "otop": 7802,
      "Ġrevolusi": 7803,
      "Ġdiharapkan": 7804,
      "ĠLittle": 7805,
      "ĠLaks": 7806,
      "Ġantena": 7807,
      "EE": 7808,
      "Ġpenyebab": 7809,
      "quar": 7810,
      "Ġapapun": 7811,
      "âĢĿ.": 7812,
      "Ġsengaja": 7813,
      "olis": 7814,
      "ĠCip": 7815,
      "iraan": 7816,
      "ĠSala": 7817,
      "ikasikan": 7818,
      "ingi": 7819,
      "Ġditandai": 7820,
      "ĠMesin": 7821,
      "anjir": 7822,
      "Ġumur": 7823,
      "Ġkesalahan": 7824,
      "ĠSit": 7825,
      "ines": 7826,
      "ĠNan": 7827,
      "ĠÃĹ": 7828,
      "amo": 7829,
      "ĠBlue": 7830,
      "mel": 7831,
      "Ġrusak": 7832,
      "ĠFern": 7833,
      "Ïģ": 7834,
      "sili": 7835,
      "ingu": 7836,
      "1985": 7837,
      "Ġmelambangkan": 7838,
      "Ġmempromosikan": 7839,
      "araja": 7840,
      "ĠFab": 7841,
      "Ġ34": 7842,
      "ĠDol": 7843,
      "kes": 7844,
      "ĠEth": 7845,
      "Ġberagama": 7846,
      "Ġ1938": 7847,
      "Ġlatihan": 7848,
      "EO": 7849,
      "Ġtip": 7850,
      "Ġdiresmikan": 7851,
      "waktu": 7852,
      "ĠStudio": 7853,
      "lar": 7854,
      "ĠRumania": 7855,
      "ĠFootball": 7856,
      "ambangan": 7857,
      "ĠMataram": 7858,
      "eople": 7859,
      "Ðº": 7860,
      "Ġadegan": 7861,
      "uturkan": 7862,
      "ĠPeriode": 7863,
      "ĠSydney": 7864,
      "lv": 7865,
      "nd": 7866,
      "ĠKerja": 7867,
      "aitkan": 7868,
      "inn": 7869,
      "ĠBuk": 7870,
      "zan": 7871,
      "UD": 7872,
      "antangan": 7873,
      "oper": 7874,
      "arya": 7875,
      "ĠCos": 7876,
      "sesi": 7877,
      "Ġgabungan": 7878,
      "ĠDic": 7879,
      "Ġsay": 7880,
      "ĠMicros": 7881,
      "ĠApi": 7882,
      "Ġbut": 7883,
      "ĠHu": 7884,
      "ĠCultur": 7885,
      "echt": 7886,
      "Ġkaca": 7887,
      "Ġpenemuan": 7888,
      "iness": 7889,
      "Ġmengisi": 7890,
      "Ġmelintasi": 7891,
      "Ġselam": 7892,
      "Ġkontrol": 7893,
      "lock": 7894,
      "ĠRS": 7895,
      "ĠCandi": 7896,
      "ĠTon": 7897,
      "Bahasa": 7898,
      "Ġpej": 7899,
      "emuk": 7900,
      "Ġpemikiran": 7901,
      "ĠKonstant": 7902,
      "Ġpendekatan": 7903,
      "ĠCOVID": 7904,
      "ĠAT": 7905,
      "gaz": 7906,
      "Ġmembintangi": 7907,
      "Kep": 7908,
      "ahaman": 7909,
      "Ġluka": 7910,
      "Ġjurusan": 7911,
      "Ġdilantik": 7912,
      "anggilan": 7913,
      "ĠKonferensi": 7914,
      "ĠManchester": 7915,
      "uksesan": 7916,
      "Ġinternal": 7917,
      "ĠLuas": 7918,
      "Ġdipasang": 7919,
      "Ġpasca": 7920,
      "Ġindah": 7921,
      "ĠHand": 7922,
      "uber": 7923,
      "ĠPenerbangan": 7924,
      "Ġmendi": 7925,
      "odifikasi": 7926,
      "rol": 7927,
      "Ġancaman": 7928,
      "ĠMol": 7929,
      "igu": 7930,
      "Ġpembagian": 7931,
      "ego": 7932,
      "Ġmenjadikannya": 7933,
      "Ġmeja": 7934,
      "uny": 7935,
      "ĠYos": 7936,
      "Ã©e": 7937,
      "ĠFederasi": 7938,
      "erson": 7939,
      "Ġprodusen": 7940,
      "ebook": 7941,
      "alaya": 7942,
      "besar": 7943,
      "ĠMarc": 7944,
      "Ġbervariasi": 7945,
      "ĠLomb": 7946,
      "Ġakar": 7947,
      "omer": 7948,
      "ĠLiber": 7949,
      "ĠBiz": 7950,
      "edo": 7951,
      ";\"|": 7952,
      "kira": 7953,
      "ĠAut": 7954,
      "Ġkehormatan": 7955,
      "Ġmanajer": 7956,
      "ĠNick": 7957,
      "Ġmembahas": 7958,
      "On": 7959,
      "Ġlanjutan": 7960,
      "ukang": 7961,
      "eing": 7962,
      "ĠLokasi": 7963,
      "hatikan": 7964,
      "cap": 7965,
      "enz": 7966,
      "ĠRena": 7967,
      "Ġkesulitan": 7968,
      "'.": 7969,
      "rab": 7970,
      "erba": 7971,
      "Ġterdaftar": 7972,
      "dasi": 7973,
      "ĠKomunikasi": 7974,
      "ĠRW": 7975,
      "ĠJay": 7976,
      "ĠVII": 7977,
      "ente": 7978,
      "Ġregional": 7979,
      "anton": 7980,
      "etis": 7981,
      "Ġpapan": 7982,
      "Ġnenek": 7983,
      "Ġmengenakan": 7984,
      "presi": 7985,
      "ding": 7986,
      "ifinal": 7987,
      "ĠChurch": 7988,
      "ĠVictoria": 7989,
      "ĠChannel": 7990,
      "inum": 7991,
      "Ġmemerankan": 7992,
      "Ġcocok": 7993,
      "ĠIvan": 7994,
      "Ġakun": 7995,
      "ĠAktris": 7996,
      "icus": 7997,
      "Ġnot": 7998,
      "ĠBengkulu": 7999,
      "Ġsetara": 8000,
      "Ġtank": 8001,
      "olam": 8002,
      "vers": 8003,
      "mum": 8004,
      "sian": 8005,
      "1983": 8006,
      "Ġpor": 8007,
      "Ġkala": 8008,
      "Ġditemp": 8009,
      "ĠSky": 8010,
      "Ġsab": 8011,
      "ĠBapak": 8012,
      "tarik": 8013,
      "ĠMantan": 8014,
      "ĠFu": 8015,
      "eme": 8016,
      "imaan": 8017,
      "ĠKepolisian": 8018,
      "Ġlembap": 8019,
      "udang": 8020,
      "ĠFA": 8021,
      "Ġterjemahan": 8022,
      "Ġbencana": 8023,
      "Ġperek": 8024,
      "Ġpenurunan": 8025,
      "ĠAmb": 8026,
      "Ġkandang": 8027,
      "ĠKegiatan": 8028,
      "ĠOnline": 8029,
      "ĠChap": 8030,
      "Ġdilanjutkan": 8031,
      "angkatan": 8032,
      "oor": 8033,
      "iao": 8034,
      "Ġstrategi": 8035,
      "ance": 8036,
      "Ġpenyelenggaraan": 8037,
      "ĠBegonia": 8038,
      "redit": 8039,
      "ĠAC": 8040,
      "pur": 8041,
      "inter": 8042,
      "eti": 8043,
      "Ġdibutuhkan": 8044,
      "alyon": 8045,
      "Ġtenggara": 8046,
      "Ġdiser": 8047,
      "ĠMaur": 8048,
      "kantor": 8049,
      "ĠFried": 8050,
      "estor": 8051,
      "embilan": 8052,
      "Ġmag": 8053,
      "Ġraksasa": 8054,
      "ĠSteph": 8055,
      "Ġsolo": 8056,
      "Ġkembar": 8057,
      "elly": 8058,
      "Ġsam": 8059,
      "ejah": 8060,
      "ĠSama": 8061,
      "Ġpeneliti": 8062,
      "ĠProduk": 8063,
      "Ġbenua": 8064,
      "inaan": 8065,
      "egas": 8066,
      "edonia": 8067,
      "ĠChang": 8068,
      "ĠâĨ": 8069,
      "Ġarke": 8070,
      "umenter": 8071,
      "omyza": 8072,
      "Pem": 8073,
      "Ġplay": 8074,
      "ĠOrch": 8075,
      "umpur": 8076,
      "ĠTransportasi": 8077,
      "etas": 8078,
      "Ġditujukan": 8079,
      "ĠBillboard": 8080,
      "Ġspir": 8081,
      "Ġmaterial": 8082,
      "Ġpolit": 8083,
      "abil": 8084,
      "Ã«": 8085,
      "ebutan": 8086,
      "ston": 8087,
      "Ġlambang": 8088,
      "Ġfestival": 8089,
      "ĠOc": 8090,
      "ugerahi": 8091,
      "ĠIbnu": 8092,
      "color": 8093,
      "ĠPenguasa": 8094,
      "bis": 8095,
      "Ġmula": 8096,
      "Ġofficial": 8097,
      "ĠApostolik": 8098,
      "Ġlayak": 8099,
      "able": 8100,
      "69": 8101,
      "Ġsesi": 8102,
      "Ġmenyampaikan": 8103,
      "roc": 8104,
      "Ġsebagainya": 8105,
      "ĠMA": 8106,
      "1984": 8107,
      "Ġkalau": 8108,
      "elajah": 8109,
      "Ġlubang": 8110,
      "Ġpap": 8111,
      "rov": 8112,
      "Ġjurnal": 8113,
      "Ġmenyukai": 8114,
      "endra": 8115,
      "Ġterbukti": 8116,
      "ĠVilla": 8117,
      "ardo": 8118,
      "ĠRek": 8119,
      "Ġkampus": 8120,
      "ĠAsian": 8121,
      "FF": 8122,
      "ĠDuta": 8123,
      "mail": 8124,
      "ĠPublishing": 8125,
      "Ġsupaya": 8126,
      "Ġguna": 8127,
      "Ġlamp": 8128,
      "KA": 8129,
      "Ġpemilu": 8130,
      "ardinal": 8131,
      "ĠJones": 8132,
      "Ġberas": 8133,
      "Ġkonten": 8134,
      "ĠSampai": 8135,
      "Ġkumpulan": 8136,
      "ĠRider": 8137,
      "Ġbasis": 8138,
      "uay": 8139,
      "Ġdirencanakan": 8140,
      "ekaran": 8141,
      "Ġdisusun": 8142,
      "ave": 8143,
      "Ġ),": 8144,
      "anon": 8145,
      "angkal": 8146,
      "Ġprasasti": 8147,
      "unjungan": 8148,
      "ĠNobel": 8149,
      "Ġpangkat": 8150,
      "Ġperawatan": 8151,
      "Ãł": 8152,
      "Ġpari": 8153,
      "Ġseekor": 8154,
      "ĠStates": 8155,
      "ĠBrun": 8156,
      "Ġkrim": 8157,
      "ĠSaf": 8158,
      "ĠBuddh": 8159,
      "iÄĩ": 8160,
      "Ke": 8161,
      "Ġpangan": 8162,
      "Ġì": 8163,
      "aring": 8164,
      "Ġpenyimp": 8165,
      "Ġmenggabungkan": 8166,
      "Ġstaf": 8167,
      "Ġbom": 8168,
      "Ġmeriam": 8169,
      "inja": 8170,
      "Ġinvestasi": 8171,
      "wanya": 8172,
      "ĠMasehi": 8173,
      "Ġsinar": 8174,
      "Ġformal": 8175,
      "ĠBekasi": 8176,
      "ĠAugust": 8177,
      "ĠMosk": 8178,
      "Ġmenerapkan": 8179,
      "Ã¸": 8180,
      "ĠResi": 8181,
      "etakkan": 8182,
      "enomena": 8183,
      "Ġdiyakini": 8184,
      "Ġlet": 8185,
      "ĠJembatan": 8186,
      "atanya": 8187,
      "rahim": 8188,
      "ĠJuan": 8189,
      "yai": 8190,
      "Ġ400": 8191,
      "Ġmenyimpan": 8192,
      "Ġnit": 8193,
      "ĠPariwisata": 8194,
      "Ġvir": 8195,
      "ĠBahan": 8196,
      "Ġ1933": 8197,
      "tha": 8198,
      "ĠMicrosoft": 8199,
      "enjata": 8200,
      "Ġtertarik": 8201,
      "can": 8202,
      "ĠGram": 8203,
      "Ġsekelompok": 8204,
      "aham": 8205,
      "Ġfinis": 8206,
      "ĠTown": 8207,
      "ĠCre": 8208,
      "Ġkomik": 8209,
      "mata": 8210,
      "Ġmac": 8211,
      "Ġhalus": 8212,
      "Ġpengakuan": 8213,
      "ĠAnna": 8214,
      "ĠAdi": 8215,
      "ĠJav": 8216,
      "Ġditugaskan": 8217,
      "ancur": 8218,
      "ĠSoekarno": 8219,
      "atasi": 8220,
      "Ġdimakamkan": 8221,
      "Ġgarapan": 8222,
      "Ġbertambah": 8223,
      "Ph": 8224,
      "ĠKela": 8225,
      "ĠXV": 8226,
      "ĠFrance": 8227,
      "ĠGala": 8228,
      "Ġdipanggil": 8229,
      "ĠAtl": 8230,
      "ĠPimpinan": 8231,
      "Ġbukit": 8232,
      "ĠHawa": 8233,
      "gawa": 8234,
      "Ġstrategis": 8235,
      "Ġprofile": 8236,
      "Ä±": 8237,
      "Ġpengunjung": 8238,
      "ĠKroasia": 8239,
      "ĠDah": 8240,
      "Berikut": 8241,
      "ĠToba": 8242,
      "Ġmenangani": 8243,
      "Ġpenyi": 8244,
      "ĠChampionship": 8245,
      "Ġfir": 8246,
      "ĠAktor": 8247,
      "ĠMerc": 8248,
      "Ġuji": 8249,
      "ĠAyahnya": 8250,
      "onfirmasi": 8251,
      "Ġdigelar": 8252,
      "hard": 8253,
      "Ġditerjemahkan": 8254,
      "Ġwajib": 8255,
      "ĠSaudara": 8256,
      "Ġkaryawan": 8257,
      "tidae": 8258,
      "Ġ().": 8259,
      "larasi": 8260,
      "Ġcipta": 8261,
      "isihan": 8262,
      "ĠDoc": 8263,
      "otan": 8264,
      "Ġotak": 8265,
      "GM": 8266,
      "Ġtertulis": 8267,
      "eno": 8268,
      "ĠPy": 8269,
      "ĠFoundation": 8270,
      "Ġterkena": 8271,
      "Ġ1935": 8272,
      "Ġ75": 8273,
      "ĠMakan": 8274,
      "ĠJohnson": 8275,
      "ĠRasul": 8276,
      "orf": 8277,
      "ĠNiger": 8278,
      "Ġritual": 8279,
      "Ġgaram": 8280,
      "Ġotoritas": 8281,
      "ĠManda": 8282,
      "ajah": 8283,
      "ĠPelabuhan": 8284,
      "PN": 8285,
      "ĠMassa": 8286,
      "Ġsinyal": 8287,
      "panjang": 8288,
      "Ġparah": 8289,
      "ĠSekutu": 8290,
      "Ġgeografis": 8291,
      "Ġmemberit": 8292,
      "ĠWIB": 8293,
      "suf": 8294,
      "ĠFederal": 8295,
      "Ġkanker": 8296,
      "iaceae": 8297,
      "angkitan": 8298,
      "Ġden": 8299,
      "ĠHard": 8300,
      "ĠLub": 8301,
      "ĠKecil": 8302,
      "RL": 8303,
      "utra": 8304,
      "Ġmenuntut": 8305,
      "usim": 8306,
      "Ġkerap": 8307,
      "Ġinvasi": 8308,
      "Ġterminal": 8309,
      "Ġterpaksa": 8310,
      "Ġkelapa": 8311,
      "Pen": 8312,
      "Ġbr": 8313,
      "Ġbunuh": 8314,
      "ambat": 8315,
      "Ġibadah": 8316,
      "ĠYour": 8317,
      "reditasi": 8318,
      "Ġmemperkuat": 8319,
      "Ġberangkat": 8320,
      "ule": 8321,
      "evin": 8322,
      "Ġpak": 8323,
      "Ġmemastikan": 8324,
      "ĠCarl": 8325,
      "senjata": 8326,
      "Ïħ": 8327,
      "Ġitulah": 8328,
      "Ġdieks": 8329,
      "rastruktur": 8330,
      "Ġtenis": 8331,
      "ĠNak": 8332,
      "IC": 8333,
      "Ġkonstitusi": 8334,
      "ibur": 8335,
      "Ġmengoperasikan": 8336,
      "Ġharapan": 8337,
      "Ġurusan": 8338,
      "diam": 8339,
      "1982": 8340,
      "Ġekstr": 8341,
      "Ġwali": 8342,
      "ribut": 8343,
      "Ġdistribusi": 8344,
      "ĠPemimpin": 8345,
      "Ġpendirian": 8346,
      "ĠMach": 8347,
      "Ġpasir": 8348,
      "Ġpenjaga": 8349,
      "ĠLight": 8350,
      "Ã´": 8351,
      "ĠâĢ¢": 8352,
      "Ġmodal": 8353,
      "bas": 8354,
      "ataan": 8355,
      "Ġaf": 8356,
      "ĠTir": 8357,
      "isaris": 8358,
      "aker": 8359,
      "Ø§ÙĦ": 8360,
      "ĠUnder": 8361,
      "Ġharian": 8362,
      "wana": 8363,
      "oke": 8364,
      "ĠSlov": 8365,
      "Ġdias": 8366,
      "ĠKA": 8367,
      "Ġmemahami": 8368,
      "Ġberpusat": 8369,
      "plor": 8370,
      "Ġberbagi": 8371,
      "ĠShan": 8372,
      "Ġlarva": 8373,
      "esarkan": 8374,
      "Ġbela": 8375,
      "ĠBup": 8376,
      "lement": 8377,
      "ĠGelar": 8378,
      "ĠTK": 8379,
      "amadya": 8380,
      "Ġblok": 8381,
      "ken": 8382,
      "Ġ1937": 8383,
      "Ġtertutup": 8384,
      "lek": 8385,
      "Ġmenambah": 8386,
      "ĠYusuf": 8387,
      "cess": 8388,
      "ĠGirls": 8389,
      "Ġwas": 8390,
      "Ġmengelola": 8391,
      "ĠProt": 8392,
      "sisi": 8393,
      "ĠSai": 8394,
      "ains": 8395,
      "onc": 8396,
      "Ġlegislatif": 8397,
      "ĠCyper": 8398,
      "Ġkritis": 8399,
      "tempat": 8400,
      "Ġterlebih": 8401,
      "ĠIndah": 8402,
      "Ġpeman": 8403,
      "bek": 8404,
      "Ġliar": 8405,
      "empurna": 8406,
      "fe": 8407,
      "orak": 8408,
      "ĠBoeing": 8409,
      "ĠSeoul": 8410,
      "gement": 8411,
      "rot": 8412,
      "Ġsol": 8413,
      "Ġatap": 8414,
      "Ġkamera": 8415,
      "ĠArthur": 8416,
      "ĠTeater": 8417,
      "abah": 8418,
      "eskripsikan": 8419,
      "ĠSingh": 8420,
      "ĠArmada": 8421,
      "ĠMusa": 8422,
      "ÃŃa": 8423,
      "esp": 8424,
      "ĠMaya": 8425,
      "ingen": 8426,
      "endek": 8427,
      "angun": 8428,
      "Ġmenandai": 8429,
      "unggung": 8430,
      "umahan": 8431,
      "Ġsusu": 8432,
      "ĠOh": 8433,
      "ertai": 8434,
      "Le": 8435,
      "ĠBall": 8436,
      "enggelam": 8437,
      "Qur": 8438,
      "ĠHaji": 8439,
      "awinan": 8440,
      "ohol": 8441,
      "ĠMap": 8442,
      "ĠTy": 8443,
      "Ġdomestik": 8444,
      "untry": 8445,
      "ĠHollywood": 8446,
      "ĠBeb": 8447,
      "ĠLord": 8448,
      "ĠPrestasi": 8449,
      "ĠSpace": 8450,
      "Ġhalnya": 8451,
      "ĠMadrid": 8452,
      "ĠMcC": 8453,
      "Ġburuh": 8454,
      "osari": 8455,
      "Ġ1936": 8456,
      "ĠWisata": 8457,
      "udin": 8458,
      "Ġpemberian": 8459,
      "ĠBayern": 8460,
      "amboja": 8461,
      "mun": 8462,
      "Ġmemec": 8463,
      "ĠBulg": 8464,
      "Ġorganik": 8465,
      "ĠSaw": 8466,
      "ĠJe": 8467,
      "ordinasi": 8468,
      "EM": 8469,
      "ress": 8470,
      "Ġpadi": 8471,
      "Ġmemaksa": 8472,
      "Ġ38": 8473,
      "ĠPlan": 8474,
      "ĠTradisi": 8475,
      "omet": 8476,
      "masa": 8477,
      "Ã¼n": 8478,
      "hasilan": 8479,
      "Ġrec": 8480,
      "ĠXi": 8481,
      "Ġbersaudara": 8482,
      "Äį": 8483,
      "ĠSamuel": 8484,
      "ĠPay": 8485,
      "ĠKay": 8486,
      "ĠMarga": 8487,
      "tem": 8488,
      "ĠMakam": 8489,
      "opia": 8490,
      "Ap": 8491,
      "Ġbertelur": 8492,
      "yanyikan": 8493,
      "alisasi": 8494,
      "Ġterjual": 8495,
      "Ġkas": 8496,
      "tat": 8497,
      "owo": 8498,
      "ukung": 8499,
      "igasi": 8500,
      "ĠLetnan": 8501,
      "Ġnektar": 8502,
      "other": 8503,
      "Ġpenulisan": 8504,
      "Ġ150": 8505,
      "Ġbersenjata": 8506,
      "ĠAsal": 8507,
      "Ġinfeksi": 8508,
      "ĠSor": 8509,
      "ĠOrgan": 8510,
      "Ã©n": 8511,
      "ĠGib": 8512,
      "Ġrev": 8513,
      "Ġkamu": 8514,
      "reen": 8515,
      "ĠEncyclopedia": 8516,
      "Ġprot": 8517,
      "urnalis": 8518,
      "upai": 8519,
      "Ð»": 8520,
      "eteksi": 8521,
      "Ġberfokus": 8522,
      "ĠBibli": 8523,
      "ĠMain": 8524,
      "Ġmengeks": 8525,
      "Ġdagang": 8526,
      "Ġmeski": 8527,
      "ĠMuara": 8528,
      "Ġdidapat": 8529,
      "ĠAntara": 8530,
      "Ġdianugerahi": 8531,
      "Sa": 8532,
      "ĠKin": 8533,
      "Ġ37": 8534,
      "track": 8535,
      "ĠKabinet": 8536,
      "ĠPokÃ©": 8537,
      "ants": 8538,
      "ucapkan": 8539,
      "ĠLiu": 8540,
      "Ġbinatang": 8541,
      "ĠTib": 8542,
      "bankan": 8543,
      "Ġlemah": 8544,
      "antang": 8545,
      "igran": 8546,
      "onim": 8547,
      "Ġsemangat": 8548,
      "zar": 8549,
      "ĠPun": 8550,
      "elaki": 8551,
      "ĠDh": 8552,
      "Ġgua": 8553,
      "ĠDevelop": 8554,
      "ĠSamb": 8555,
      "onstr": 8556,
      "Ġresi": 8557,
      "Ïĥ": 8558,
      "ĠStephen": 8559,
      "ebarkan": 8560,
      "ĠCam": 8561,
      "uch": 8562,
      "ĠAraneidae": 8563,
      "satu": 8564,
      "tika": 8565,
      "ĠSurya": 8566,
      "Ġstat": 8567,
      "ĠGard": 8568,
      "ype": 8569,
      "ĠJoe": 8570,
      "ĠCit": 8571,
      "Ġpenutup": 8572,
      "Man": 8573,
      "Ġpergerakan": 8574,
      "Ġmenyerah": 8575,
      "ific": 8576,
      "ijan": 8577,
      "ĠNatal": 8578,
      "night": 8579,
      "ĠSehingga": 8580,
      "embahan": 8581,
      "ĠWan": 8582,
      "ilisan": 8583,
      "Ġkepemilikan": 8584,
      "Ġmelepaskan": 8585,
      "hor": 8586,
      "Ġseiring": 8587,
      "manen": 8588,
      "ĠPep": 8589,
      "Ġtol": 8590,
      "termasuk": 8591,
      "gagalan": 8592,
      "ĠColumbia": 8593,
      "ĠLov": 8594,
      "uit": 8595,
      "ides": 8596,
      "ĠTuan": 8597,
      "Ġ1918": 8598,
      "ĠMajalah": 8599,
      "ĠBatavia": 8600,
      "kel": 8601,
      "wujud": 8602,
      "pin": 8603,
      "ĠGampong": 8604,
      "ĠUsaha": 8605,
      "eton": 8606,
      "dic": 8607,
      "ustru": 8608,
      "ĠIndian": 8609,
      "misi": 8610,
      "ĠAKB": 8611,
      "ĠHans": 8612,
      "Ġdilarang": 8613,
      "ĠTaylor": 8614,
      "ĠLine": 8615,
      "pat": 8616,
      "ĠLady": 8617,
      "Ġpersamaan": 8618,
      "Ġbiara": 8619,
      "Ġpencarian": 8620,
      "ĠLum": 8621,
      "Ġaktivis": 8622,
      "arankan": 8623,
      "ĠJane": 8624,
      "ĠMoon": 8625,
      "Ġkasih": 8626,
      "ĠNep": 8627,
      "aksikan": 8628,
      "Ġmarga": 8629,
      "ĠSS": 8630,
      "Ġmulut": 8631,
      "ikanan": 8632,
      "Ġrom": 8633,
      "okerto": 8634,
      "Ġbersejarah": 8635,
      "band": 8636,
      "uris": 8637,
      "Ġfase": 8638,
      "ĠPrim": 8639,
      "Ġpartikel": 8640,
      "Ġketujuh": 8641,
      "ape": 8642,
      "ĠBerbagai": 8643,
      "ĠEksp": 8644,
      "ship": 8645,
      "sche": 8646,
      "Ġ120": 8647,
      "kau": 8648,
      "inerja": 8649,
      "Ġinsiden": 8650,
      "Ġkonserv": 8651,
      "ĠJab": 8652,
      "ages": 8653,
      "ajaran": 8654,
      "ĠHidangan": 8655,
      "Ġpage": 8656,
      "1979": 8657,
      "ejahter": 8658,
      "ĠPustaka": 8659,
      "intasan": 8660,
      "ĠEmas": 8661,
      "ako": 8662,
      "ĠDC": 8663,
      "aca": 8664,
      "uaca": 8665,
      "binasi": 8666,
      "olehkan": 8667,
      "Ġpengobatan": 8668,
      "ĠPenj": 8669,
      "ambilan": 8670,
      "Ġkain": 8671,
      "ĠHitam": 8672,
      "300": 8673,
      "ĠRan": 8674,
      "Ġkomposisi": 8675,
      "ĠâĨĴ": 8676,
      "vy": 8677,
      "igan": 8678,
      "Ġkonteks": 8679,
      "esaan": 8680,
      "ĠJunior": 8681,
      "ĠSemenanjung": 8682,
      "cobaan": 8683,
      "Ġkedatangan": 8684,
      "ĠMand": 8685,
      "ĠFungsi": 8686,
      "uduh": 8687,
      "Ġpersetujuan": 8688,
      "yanmar": 8689,
      "uba": 8690,
      "Ġpur": 8691,
      "Ġmenunjuk": 8692,
      "jaga": 8693,
      "Ġmengenal": 8694,
      "Ġdaring": 8695,
      "este": 8696,
      "esuaikan": 8697,
      "Ġvarian": 8698,
      "1980": 8699,
      "ĠMarch": 8700,
      "1981": 8701,
      "Ġdiman": 8702,
      "amana": 8703,
      "endang": 8704,
      "ĠCathol": 8705,
      "ĠRC": 8706,
      "tron": 8707,
      "rio": 8708,
      "yyah": 8709,
      "ĠMulai": 8710,
      "fur": 8711,
      "Ġdiadopsi": 8712,
      "etapan": 8713,
      "aptis": 8714,
      "ĠTamb": 8715,
      "ĠCensus": 8716,
      "ominasikan": 8717,
      "Ġakting": 8718,
      "ĠOver": 8719,
      "Ġserius": 8720,
      "pus": 8721,
      "ÙĪ": 8722,
      "Ġmain": 8723,
      "Ġbudak": 8724,
      "Ġfisika": 8725,
      "ĠHome": 8726,
      "Ġbo": 8727,
      "Ġmendarat": 8728,
      "ror": 8729,
      "ĠKomputer": 8730,
      "ĠCeko": 8731,
      "Ġpolen": 8732,
      "Ġberkurang": 8733,
      "Ġkebenaran": 8734,
      "Ġangkutan": 8735,
      "num": 8736,
      "Ġadaptasi": 8737,
      "ĠHok": 8738,
      "ĠMit": 8739,
      "abe": 8740,
      "Ġwilayahnya": 8741,
      "ĠYosh": 8742,
      "serv": 8743,
      "ĠEfek": 8744,
      "ĠMarin": 8745,
      "ware": 8746,
      "kapal": 8747,
      "enth": 8748,
      "Ġefisi": 8749,
      "Br": 8750,
      "Ġsosok": 8751,
      "edal": 8752,
      "As": 8753,
      "ĠPanc": 8754,
      "Ġasisten": 8755,
      "BI": 8756,
      "uban": 8757,
      "Ġulasan": 8758,
      "Ġdisajikan": 8759,
      "Ġpi": 8760,
      "ĠSony": 8761,
      "edah": 8762,
      "lukkan": 8763,
      "ĠGreg": 8764,
      "ĠDef": 8765,
      "Ġmisteri": 8766,
      "tikel": 8767,
      "ĠGas": 8768,
      "ĠIndon": 8769,
      "Ġpilot": 8770,
      "Ġpelanggan": 8771,
      "gio": 8772,
      "Ġkeselamatan": 8773,
      "ĠAL": 8774,
      "ĠSejumlah": 8775,
      "Ġbon": 8776,
      "ĠArts": 8777,
      "ĠAch": 8778,
      "ĠZhang": 8779,
      "yangk": 8780,
      "ĠPul": 8781,
      "elik": 8782,
      "ĠCross": 8783,
      "Ġdengannya": 8784,
      "ĠLast": 8785,
      "gam": 8786,
      "AC": 8787,
      "een": 8788,
      "ĠOS": 8789,
      "anam": 8790,
      "ĠDevelopment": 8791,
      "onomian": 8792,
      "onjol": 8793,
      "Ġsinetron": 8794,
      "bir": 8795,
      "ĠWomen": 8796,
      "intesis": 8797,
      "Ġscope": 8798,
      "Ġsaudaranya": 8799,
      "ĠSuatu": 8800,
      "ĠList": 8801,
      "bumi": 8802,
      "ĠBulgaria": 8803,
      "caan": 8804,
      "ĠOld": 8805,
      "Ġpahlawan": 8806,
      "Ġkebakaran": 8807,
      "UH": 8808,
      "umpah": 8809,
      "cl": 8810,
      "ĠAhli": 8811,
      "sitek": 8812,
      "ĠDesain": 8813,
      "edera": 8814,
      "Ġcolspan": 8815,
      "ĠPemuda": 8816,
      "ĠDoug": 8817,
      "ĠRiz": 8818,
      "ĠKamboja": 8819,
      "Ġpemukiman": 8820,
      "lora": 8821,
      "ĠBisnis": 8822,
      "Ġdimaksudkan": 8823,
      "Ġ01": 8824,
      "ency": 8825,
      "ĠIbrahim": 8826,
      "Ġrupa": 8827,
      "ĠPenampilan": 8828,
      "Ġdipandang": 8829,
      "Ġdikaitkan": 8830,
      "Ġsum": 8831,
      "intai": 8832,
      "Ġhektar": 8833,
      "Ġ1914": 8834,
      "acar": 8835,
      "ejahteraan": 8836,
      "ribadi": 8837,
      "okol": 8838,
      "ming": 8839,
      "press": 8840,
      "urai": 8841,
      "inginkan": 8842,
      "Ġ65": 8843,
      "ĠSisi": 8844,
      "Ġkira": 8845,
      "Ġkalender": 8846,
      "ĠAnderson": 8847,
      "ĠPeserta": 8848,
      "Ġ00": 8849,
      "utkan": 8850,
      "ĠPesta": 8851,
      "Ġperdamaian": 8852,
      "Ġterhubung": 8853,
      "ĠHein": 8854,
      "Ġpetugas": 8855,
      "rench": 8856,
      "Ġgenre": 8857,
      "Ġjustru": 8858,
      "ombia": 8859,
      "dih": 8860,
      "Ġkrisis": 8861,
      "ĠAnne": 8862,
      "Men": 8863,
      "Ġbandar": 8864,
      "ĠPL": 8865,
      "Ġrestoran": 8866,
      "ĠKami": 8867,
      "Sc": 8868,
      "ogon": 8869,
      "Ġdinyanyikan": 8870,
      "ĠPerangkat": 8871,
      "kem": 8872,
      "ĠRon": 8873,
      "ĠFair": 8874,
      "Ġtuanya": 8875,
      "ĠÃī": 8876,
      "Ġseber": 8877,
      "ĠIX": 8878,
      "ĠHuman": 8879,
      "antium": 8880,
      "ĠSingle": 8881,
      "ĠPokÃ©mon": 8882,
      "impi": 8883,
      "Ġjari": 8884,
      "Ġpelukis": 8885,
      "enya": 8886,
      "Uni": 8887,
      "iasaan": 8888,
      "uko": 8889,
      "elian": 8890,
      "ences": 8891,
      "Ġbaris": 8892,
      "ĠKla": 8893,
      "ĠCop": 8894,
      "Ġhor": 8895,
      "ĠRute": 8896,
      "gazine": 8897,
      "seba": 8898,
      "ĠKamen": 8899,
      "tiba": 8900,
      "Ġroti": 8901,
      "Ãª": 8902,
      "Ġtes": 8903,
      "idor": 8904,
      "Ġwawancara": 8905,
      "ĠKimia": 8906,
      "Ġpekan": 8907,
      "Ġberdirinya": 8908,
      "ĠFamil": 8909,
      "opo": 8910,
      "Ġberbahaya": 8911,
      "Ġtanggung": 8912,
      "bilitas": 8913,
      "pol": 8914,
      "Ġberpikir": 8915,
      "til": 8916,
      "urunkan": 8917,
      "ways": 8918,
      "alisi": 8919,
      "ĠSelat": 8920,
      "timbangkan": 8921,
      "dit": 8922,
      "endo": 8923,
      "Ġmengingat": 8924,
      "onster": 8925,
      "Ġoperator": 8926,
      "uluki": 8927,
      "Ġali": 8928,
      "mana": 8929,
      "incin": 8930,
      "awar": 8931,
      "ĠKode": 8932,
      "ĠSekarang": 8933,
      "adaban": 8934,
      "Ġberalih": 8935,
      "Ġpemro": 8936,
      "ĠCatholic": 8937,
      "ĠTem": 8938,
      "ĠKey": 8939,
      "inah": 8940,
      "Ġleluhur": 8941,
      "Ġpeta": 8942,
      "elia": 8943,
      "ĠRey": 8944,
      "Ġkonsentrasi": 8945,
      "ĠErn": 8946,
      "ĠEconom": 8947,
      "asangan": 8948,
      "yad": 8949,
      "ĠPahlawan": 8950,
      "ĠGl": 8951,
      "Ġbal": 8952,
      "ĠPekerjaan": 8953,
      "Ġeksk": 8954,
      "Ġ48": 8955,
      "ĠPetrus": 8956,
      "ĠPintu": 8957,
      "Ġreformasi": 8958,
      "ĠAdvent": 8959,
      "yakinan": 8960,
      "ungkap": 8961,
      "Ġbiji": 8962,
      "ancarkan": 8963,
      "ĠRot": 8964,
      "Ġprofesor": 8965,
      "ĠWu": 8966,
      "Ġkesuksesan": 8967,
      "ĠBila": 8968,
      "ĠAzerba": 8969,
      "ĠBiasanya": 8970,
      "ĠSpecial": 8971,
      "Ġdijalan": 8972,
      "ĠTun": 8973,
      "ĠHutan": 8974,
      "dwalkan": 8975,
      "ĠObjek": 8976,
      "Ġkonvensi": 8977,
      "Ġmendekati": 8978,
      "Ġkeyakinan": 8979,
      "ĠHart": 8980,
      "ĠLaur": 8981,
      "ĠDek": 8982,
      "TC": 8983,
      "Ġagung": 8984,
      "jemahan": 8985,
      "ĠNga": 8986,
      "angku": 8987,
      "Ġmenurunkan": 8988,
      "utri": 8989,
      "Ġspesifik": 8990,
      "Ġteratas": 8991,
      "obo": 8992,
      "ĠNug": 8993,
      "Ġpendudukan": 8994,
      "Ġsempurna": 8995,
      "ulih": 8996,
      "uburan": 8997,
      "Ġmenonjol": 8998,
      "Ġkabel": 8999,
      "Ġ1934": 9000,
      "ĠPendirian": 9001,
      "ĠAD": 9002,
      "irah": 9003,
      "aph": 9004,
      "ampur": 9005,
      "ĠAsy": 9006,
      "Ġbupati": 9007,
      "Ġhe": 9008,
      "yakit": 9009,
      "sendiri": 9010,
      "Ġkekayaan": 9011,
      "Ġmelarang": 9012,
      "Ġskenario": 9013,
      "Ġtud": 9014,
      "bag": 9015,
      "Ġdibantu": 9016,
      "Ġ39": 9017,
      "sta": 9018,
      "Ġmengganti": 9019,
      "ĠYe": 9020,
      "lassi": 9021,
      "ĠJep": 9022,
      "idikan": 9023,
      "Ġsec": 9024,
      "Ġ1929": 9025,
      "intis": 9026,
      "adron": 9027,
      "Ġpersonel": 9028,
      "Ġ1928": 9029,
      "Ġmemperluas": 9030,
      "Ġpenerima": 9031,
      "Ġbersih": 9032,
      "Ġsejauh": 9033,
      "antri": 9034,
      "Ġpeluncuran": 9035,
      "IK": 9036,
      "ĠMaz": 9037,
      "non": 9038,
      "ĠYug": 9039,
      "Ġpertanyaan": 9040,
      "Ġkarir": 9041,
      "ĠBupres": 9042,
      "sin": 9043,
      "Ġberkisar": 9044,
      "ĠSatuan": 9045,
      "Ġperahu": 9046,
      "Ġ1900": 9047,
      "ĠBuprestidae": 9048,
      "ĠTeks": 9049,
      "Ġ1932": 9050,
      "1978": 9051,
      "Ġdefinisi": 9052,
      "alai": 9053,
      "gic": 9054,
      "ipa": 9055,
      "Ġtimbul": 9056,
      "Ġmenghadiri": 9057,
      "Ġfamilia": 9058,
      "resent": 9059,
      "bak": 9060,
      "Ġion": 9061,
      "ĠAlat": 9062,
      "eto": 9063,
      "ĠMeny": 9064,
      "adaran": 9065,
      "elai": 9066,
      "Ġjabatannya": 9067,
      "ĠQing": 9068,
      "Ġreferensi": 9069,
      "Peng": 9070,
      "Ġret": 9071,
      "Ġamat": 9072,
      "osil": 9073,
      "ĠGad": 9074,
      "edar": 9075,
      "mosfer": 9076,
      "Ġpir": 9077,
      "ĠSecret": 9078,
      "Ġhendak": 9079,
      "ĠPeringkat": 9080,
      "ĠHamil": 9081,
      "ĠKoda": 9082,
      "ĠMyanmar": 9083,
      "olasi": 9084,
      "Ġ44": 9085,
      "Ġdipro": 9086,
      "gie": 9087,
      "Or": 9088,
      "olk": 9089,
      "Ġmarah": 9090,
      "ĠMall": 9091,
      "Ġpenari": 9092,
      "ĠHilir": 9093,
      ")\"": 9094,
      "ĠTelevision": 9095,
      "Ġmelebih": 9096,
      "bot": 9097,
      "Ġmurni": 9098,
      "injaman": 9099,
      "gon": 9100,
      "Ġpemakaman": 9101,
      "Ġterdekat": 9102,
      "ĠMoto": 9103,
      "Ġperlawanan": 9104,
      "Ġsenapan": 9105,
      "Ġmulti": 9106,
      "Ġ55": 9107,
      "Ġklor": 9108,
      "Ġbersaing": 9109,
      "inyur": 9110,
      "Ġmemisahkan": 9111,
      "ĠHerman": 9112,
      "antar": 9113,
      "Ø±": 9114,
      "Ġhancur": 9115,
      "ĠSyah": 9116,
      "esc": 9117,
      "Ġmaksimum": 9118,
      "vei": 9119,
      "ĠBun": 9120,
      "Ġdasarnya": 9121,
      "Ġcairan": 9122,
      "bach": 9123,
      "ĠHida": 9124,
      "ĠMinahasa": 9125,
      "mit": 9126,
      "Ġdinominasikan": 9127,
      "Ġdamai": 9128,
      "Ġ1919": 9129,
      "eria": 9130,
      "ĠMelalui": 9131,
      "ĠFord": 9132,
      "ĠDisc": 9133,
      "jahan": 9134,
      "ukim": 9135,
      "ĠBund": 9136,
      "ĠKemerdekaan": 9137,
      "tengah": 9138,
      "ukun": 9139,
      "ĠKonsep": 9140,
      "Fran": 9141,
      "oes": 9142,
      "Ġdijelaskan": 9143,
      "ÅŁ": 9144,
      "gain": 9145,
      "utaran": 9146,
      "ĠAzerbaijan": 9147,
      "PC": 9148,
      "Ġpemegang": 9149,
      "sterdam": 9150,
      "Ġqu": 9151,
      "ĠDharma": 9152,
      "ĠPerempuan": 9153,
      "fo": 9154,
      "emporer": 9155,
      "Ġmengejar": 9156,
      "Ġdipegang": 9157,
      "Ġlamela": 9158,
      "Ġkotak": 9159,
      "ĠIndi": 9160,
      "1977": 9161,
      "edes": 9162,
      "isahan": 9163,
      "aval": 9164,
      "Ġanggaran": 9165,
      "Ġseharusnya": 9166,
      "kon": 9167,
      "ĠDang": 9168,
      "Ġjuni": 9169,
      "Ġfakta": 9170,
      "Ġlurus": 9171,
      "Ġpangeran": 9172,
      "Ġmenjawab": 9173,
      "ĠFerr": 9174,
      "ĠRobin": 9175,
      "uruk": 9176,
      "inger": 9177,
      "ĠPolda": 9178,
      "ĠService": 9179,
      "Ġastr": 9180,
      "Ġpameran": 9181,
      "craft": 9182,
      "Ġbanjir": 9183,
      "ĠAM": 9184,
      "ĠAndrew": 9185,
      "ĠAlban": 9186,
      "Ġmoral": 9187,
      "opean": 9188,
      "acun": 9189,
      "Ġkelam": 9190,
      "uransi": 9191,
      "Ġtaj": 9192,
      "ĠSha": 9193,
      "ellow": 9194,
      "ĠMetode": 9195,
      "1975": 9196,
      "Ġvariasi": 9197,
      "qi": 9198,
      "Ġcak": 9199,
      "ĠKondisi": 9200,
      "Ġtahanan": 9201,
      "Ġmempering": 9202,
      "jian": 9203,
      "zidae": 9204,
      "Ġpikiran": 9205,
      "ĠRet": 9206,
      "lusif": 9207,
      "rejo": 9208,
      "ordan": 9209,
      "Ġnom": 9210,
      "ĠDaud": 9211,
      "ento": 9212,
      "ĠPir": 9213,
      "Ġpelajar": 9214,
      "ĠNah": 9215,
      "otus": 9216,
      "Ġkomando": 9217,
      "eer": 9218,
      "Ġberulang": 9219,
      "ĠGovern": 9220,
      "ĠFi": 9221,
      "Ġ42": 9222,
      "here": 9223,
      "Ġanggur": 9224,
      "ĠMats": 9225,
      "Ġgejala": 9226,
      "Ġpermanen": 9227,
      "otanya": 9228,
      "Ġvokalis": 9229,
      "Ġpesta": 9230,
      "ĠKita": 9231,
      "ĠManga": 9232,
      "chel": 9233,
      "Ġtakut": 9234,
      "hadiran": 9235,
      "Ġperi": 9236,
      "Ġpengisi": 9237,
      "Ġular": 9238,
      "Ġ2024": 9239,
      "ĠKeterangan": 9240,
      "Ġ1931": 9241,
      "emik": 9242,
      "ĠPremi": 9243,
      "ĠRain": 9244,
      "ĠJong": 9245,
      "Ġkecantikan": 9246,
      "ĠPram": 9247,
      "Ġlampu": 9248,
      "ĠRic": 9249,
      "Ġhimpunan": 9250,
      "ĠFrom": 9251,
      "ĠChild": 9252,
      "Ġberjuang": 9253,
      "Ġsesama": 9254,
      "ĠKebijakan": 9255,
      "ĠMike": 9256,
      "Ġdijadwalkan": 9257,
      "Ġpemerintahannya": 9258,
      "olas": 9259,
      "ĠKad": 9260,
      "ANG": 9261,
      "ĠKedokteran": 9262,
      "ĠMadras": 9263,
      "Ġtahta": 9264,
      "enalan": 9265,
      "Ġpengelolaan": 9266,
      "ĠKeber": 9267,
      "Ġdimensi": 9268,
      "ĠAspara": 9269,
      "Ġmedi": 9270,
      "ĠDNA": 9271,
      "ĠPerdagangan": 9272,
      "anjangan": 9273,
      "ĠLanka": 9274,
      "ĠHitler": 9275,
      "omenda": 9276,
      "Ġdicatat": 9277,
      "ĠArtist": 9278,
      "Ġpeluru": 9279,
      "ticle": 9280,
      "AK": 9281,
      "Ġpenyair": 9282,
      "ilaian": 9283,
      "Ġmenyerupai": 9284,
      "ĠShanghai": 9285,
      "Ġnada": 9286,
      "Ġpandemi": 9287,
      "ĠHarris": 9288,
      "Ġlingkaran": 9289,
      "Ġpanggilan": 9290,
      "EL": 9291,
      "ĠAma": 9292,
      "Ġmenyanyikan": 9293,
      "iji": 9294,
      "BM": 9295,
      "amping": 9296,
      "andakan": 9297,
      "uting": 9298,
      "istribusikan": 9299,
      "Ġkonsumen": 9300,
      "Ġditurunkan": 9301,
      "yasa": 9302,
      "idaceae": 9303,
      "Ġkarakteristik": 9304,
      "Ġpenghasil": 9305,
      "hin": 9306,
      "oser": 9307,
      "ajang": 9308,
      "ĠTipe": 9309,
      "ĠUniverse": 9310,
      "ness": 9311,
      "ĠBangka": 9312,
      "ĠBack": 9313,
      "vis": 9314,
      "ĠSpesi": 9315,
      "Ġkarang": 9316,
      "jabar": 9317,
      "Ġsegi": 9318,
      "ĠSyekh": 9319,
      "ĠMalam": 9320,
      "astian": 9321,
      "celona": 9322,
      "Bandar": 9323,
      "ĠHamilton": 9324,
      ")âĢĶ": 9325,
      "Ġkesenian": 9326,
      "ĠWilson": 9327,
      "Ġfrekuensi": 9328,
      "Ġmode": 9329,
      "odor": 9330,
      "ektro": 9331,
      "ĠKevin": 9332,
      "Ġmenghormati": 9333,
      "ĠXX": 9334,
      "Ġpandang": 9335,
      "ĠHim": 9336,
      "itorial": 9337,
      "masin": 9338,
      "br": 9339,
      "Ġamb": 9340,
      "Ġlaga": 9341,
      "Ma": 9342,
      "Ġmengor": 9343,
      "Ġfe": 9344,
      "ĠKutai": 9345,
      "ĠWolf": 9346,
      "ublikasikan": 9347,
      "siapkan": 9348,
      "ĠKai": 9349,
      "edang": 9350,
      "ĠPertengahan": 9351,
      "indo": 9352,
      "ĠCik": 9353,
      "Ġawak": 9354,
      "Ġ).": 9355,
      "Ġmengizinkan": 9356,
      "ĠPeru": 9357,
      "Ġmonarki": 9358,
      "ĠMunisipalitas": 9359,
      "ĠWater": 9360,
      "omendasi": 9361,
      "ualangan": 9362,
      "Ġmitologi": 9363,
      "ĠHaw": 9364,
      "Ġperasaan": 9365,
[...]
